<eps> 0
<blank> 1
<pad>_B 2
<pad>_I 3
<s>_B 4
<s>_I 5
</s>_B 6
</s>_I 7
<unk>_B 8
<unk>_I 9
<sil>_B 10
<sil>_I 11
▁!\exclamation-mark_B 12
▁!\exclamation-mark_I 13
▁"\left-double-quote_B 14
▁"\left-double-quote_I 15
▁"\right-double-quote_B 16
▁"\right-double-quote_I 17
▁#\hashtag_B 18
▁#\hashtag_I 19
▁#\number-sign_B 20
▁#\number-sign_I 21
▁$\dollar-sign_B 22
▁$\dollar-sign_I 23
▁%\percent-sign_B 24
▁%\percent-sign_I 25
▁&\ampersand_B 26
▁&\ampersand_I 27
▁'\apostrophe_B 28
▁'\apostrophe_I 29
▁'\left-single-quote_B 30
▁'\left-single-quote_I 31
▁'\right-single-quote_B 32
▁'\right-single-quote_I 33
▁'s\apostrophe-ess_B 34
▁'s\apostrophe-ess_I 35
▁'s\iz_B 36
▁'s\iz_I 37
▁'s\s_B 38
▁'s\s_I 39
▁'s\z_B 40
▁'s\z_I 41
▁(\left-parenthesis_B 42
▁(\left-parenthesis_I 43
▁)\right-parenthesis_B 44
▁)\right-parenthesis_I 45
▁*\asterisk_B 46
▁*\asterisk_I 47
▁+\plus-sign_B 48
▁+\plus-sign_I 49
▁,\comma_B 50
▁,\comma_I 51
▁-\hyphen_B 52
▁-\hyphen_I 53
▁-\minus-sign_B 54
▁-\minus-sign_I 55
▁.\dot_B 56
▁.\dot_I 57
▁.\period_B 58
▁.\period_I 59
▁.\point_B 60
▁.\point_I 61
▁/\slash_B 62
▁/\slash_I 63
▁:-(\emoticon_B 64
▁:-(\emoticon_I 65
▁:-)\emoticon_B 66
▁:-)\emoticon_I 67
▁:\colon_B 68
▁:\colon_I 69
▁;-)\emoticon_B 70
▁;-)\emoticon_I 71
▁;\semicolon_B 72
▁;\semicolon_I 73
▁<3\emoticon_B 74
▁<3\emoticon_I 75
▁<\left-angle-bracket_B 76
▁<\left-angle-bracket_I 77
▁=\equals-sign_B 78
▁=\equals-sign_I 79
▁>\right-angle-bracket_B 80
▁>\right-angle-bracket_I 81
▁?\question-mark_B 82
▁?\question-mark_I 83
▁@\at-sign_B 84
▁@\at-sign_I 85
▁A.D.\era_B 86
▁A.D.\era_I 87
▁A\letter_B 88
▁A\letter_I 89
▁A\uppercase-letter_B 90
▁A\uppercase-letter_I 91
▁B\letter_B 92
▁B\letter_I 93
▁B\uppercase-letter_B 94
▁B\uppercase-letter_I 95
▁C\letter_B 96
▁C\letter_I 97
▁C\uppercase-letter_B 98
▁C\uppercase-letter_I 99
▁Co.\co_B 100
▁Co.\co_I 101
▁Co.\company_B 102
▁Co.\company_I 103
▁D\letter_B 104
▁D\letter_I 105
▁D\uppercase-letter_B 106
▁D\uppercase-letter_I 107
▁E\letter_B 108
▁E\letter_I 109
▁E\uppercase-letter_B 110
▁E\uppercase-letter_I 111
▁FDA\food-and-drug-administration_B 112
▁FDA\food-and-drug-administration_I 113
▁FDIC\federal-deposit-insurance-corporation_B 114
▁FDIC\federal-deposit-insurance-corporation_I 115
▁F\letter_B 116
▁F\letter_I 117
▁F\uppercase-letter_B 118
▁F\uppercase-letter_I 119
▁G\letter_B 120
▁G\letter_I 121
▁G\uppercase-letter_B 122
▁G\uppercase-letter_I 123
▁H\letter_B 124
▁H\letter_I 125
▁H\uppercase-letter_B 126
▁H\uppercase-letter_I 127
▁I\letter_B 128
▁I\letter_I 129
▁I\pronoun_B 130
▁I\pronoun_I 131
▁I\uppercase-letter_B 132
▁I\uppercase-letter_I 133
▁J\letter_B 134
▁J\letter_I 135
▁J\uppercase-letter_B 136
▁J\uppercase-letter_I 137
▁K\letter_B 138
▁K\letter_I 139
▁K\uppercase-letter_B 140
▁K\uppercase-letter_I 141
▁L\letter_B 142
▁L\letter_I 143
▁L\uppercase-letter_B 144
▁L\uppercase-letter_I 145
▁M\letter_B 146
▁M\letter_I 147
▁M\uppercase-letter_B 148
▁M\uppercase-letter_I 149
▁Mass.\state_B 150
▁Mass.\state_I 151
▁Mech\mech_B 152
▁Mech\mech_I 153
▁Mt.\mount_B 154
▁Mt.\mount_I 155
▁Mt.\mountain_B 156
▁Mt.\mountain_I 157
▁N\letter_B 158
▁N\letter_I 159
▁N\uppercase-letter_B 160
▁N\uppercase-letter_I 161
▁O\interjection_B 162
▁O\interjection_I 163
▁O\letter_B 164
▁O\letter_I 165
▁O\uppercase-letter_B 166
▁O\uppercase-letter_I 167
▁P\letter_B 168
▁P\letter_I 169
▁P\uppercase-letter_B 170
▁P\uppercase-letter_I 171
▁Q\letter_B 172
▁Q\letter_I 173
▁Q\uppercase-letter_B 174
▁Q\uppercase-letter_I 175
▁R8\car_B 176
▁R8\car_I 177
▁R\letter_B 178
▁R\letter_I 179
▁R\uppercase-letter_B 180
▁R\uppercase-letter_I 181
▁S\letter_B 182
▁S\letter_I 183
▁S\uppercase-letter_B 184
▁S\uppercase-letter_I 185
▁TV\wake-up-word_B 186
▁TV\wake-up-word_I 187
▁T\letter_B 188
▁T\letter_I 189
▁T\uppercase-letter_B 190
▁T\uppercase-letter_I 191
▁UPC\uniform-probate-code_B 192
▁UPC\uniform-probate-code_I 193
▁U\letter_B 194
▁U\letter_I 195
▁U\uppercase-letter_B 196
▁U\uppercase-letter_I 197
▁VSCO\visco_B 198
▁VSCO\visco_I 199
▁V\letter_B 200
▁V\letter_I 201
▁V\uppercase-letter_B 202
▁V\uppercase-letter_I 203
▁WTO\world-trade-organization_B 204
▁WTO\world-trade-organization_I 205
▁W\letter_B 206
▁W\letter_I 207
▁W\uppercase-letter_B 208
▁W\uppercase-letter_I 209
▁X\letter_B 210
▁X\letter_I 211
▁X\uppercase-letter_B 212
▁X\uppercase-letter_I 213
▁Y\letter_B 214
▁Y\letter_I 215
▁Y\uppercase-letter_B 216
▁Y\uppercase-letter_I 217
▁Z\letter_B 218
▁Z\letter_I 219
▁Z\uppercase-letter_B 220
▁Z\uppercase-letter_I 221
▁[\left-square-bracket_B 222
▁[\left-square-bracket_I 223
▁\all-caps_B 224
▁\all-caps_I 225
▁\all-caps-off_B 226
▁\all-caps-off_I 227
▁\all-caps-on_B 228
▁\all-caps-on_I 229
▁\backslash_B 230
▁\backslash_I 231
▁\cap_B 232
▁\cap_I 233
▁\caps-off_B 234
▁\caps-off_I 235
▁\caps-on_B 236
▁\caps-on_I 237
▁\end-hiragana_B 238
▁\end-hiragana_I 239
▁\end-katakana_B 240
▁\end-katakana_I 241
▁\new-line_B 242
▁\new-line_I 243
▁\new-paragraph_B 244
▁\new-paragraph_I 245
▁\no-break-space_B 246
▁\no-break-space_I 247
▁\no-caps_B 248
▁\no-caps_I 249
▁\no-caps-off_B 250
▁\no-caps-off_I 251
▁\no-caps-on_B 252
▁\no-caps-on_I 253
▁\no-space_B 254
▁\no-space_I 255
▁\no-space-off_B 256
▁\no-space-off_I 257
▁\no-space-on_B 258
▁\no-space-on_I 259
▁\noise_B 260
▁\noise_I 261
▁\numeral_B 262
▁\numeral_I 263
▁\pause-filler_B 264
▁\pause-filler_I 265
▁\roman-numeral_B 266
▁\roman-numeral_I 267
▁\space-bar_B 268
▁\space-bar_I 269
▁\start-end-symbol_B 270
▁\start-end-symbol_I 271
▁\start-hiragana_B 272
▁\start-hiragana_I 273
▁\start-katakana_B 274
▁\start-katakana_I 275
▁\start-normal-input_B 276
▁\start-normal-input_I 277
▁\tab-key_B 278
▁\tab-key_I 279
▁]\right-square-bracket_B 280
▁]\right-square-bracket_I 281
▁^\caret_B 282
▁^\caret_I 283
▁^\caret-sign_B 284
▁^\caret-sign_I 285
▁`\backquote_B 286
▁`\backquote_I 287
▁a\determiner_B 288
▁a\determiner_I 289
▁a\lowercase-letter_B 290
▁a\lowercase-letter_I 291
▁b\lowercase-letter_B 292
▁b\lowercase-letter_I 293
▁c\lowercase-letter_B 294
▁c\lowercase-letter_I 295
▁cc\cc_B 296
▁cc\cc_I 297
▁d\lowercase-letter_B 298
▁d\lowercase-letter_I 299
▁e\lowercase-letter_B 300
▁e\lowercase-letter_I 301
▁f\lowercase-letter_B 302
▁f\lowercase-letter_I 303
▁g\lowercase-letter_B 304
▁g\lowercase-letter_I 305
▁h\lowercase-letter_B 306
▁h\lowercase-letter_I 307
▁i\lowercase-letter_B 308
▁i\lowercase-letter_I 309
▁j\lowercase-letter_B 310
▁j\lowercase-letter_I 311
▁k\lowercase-letter_B 312
▁k\lowercase-letter_I 313
▁l\lowercase-letter_B 314
▁l\lowercase-letter_I 315
▁m\lowercase-letter_B 316
▁m\lowercase-letter_I 317
▁n\lowercase-letter_B 318
▁n\lowercase-letter_I 319
▁o\lowercase-letter_B 320
▁o\lowercase-letter_I 321
▁one\number_B 322
▁one\number_I 323
▁one\pronoun_B 324
▁one\pronoun_I 325
▁p\lowercase-letter_B 326
▁p\lowercase-letter_I 327
▁q\lowercase-letter_B 328
▁q\lowercase-letter_I 329
▁r\lowercase-letter_B 330
▁r\lowercase-letter_I 331
▁s\lowercase-letter_B 332
▁s\lowercase-letter_I 333
▁t\lowercase-letter_B 334
▁t\lowercase-letter_I 335
▁u\lowercase-letter_B 336
▁u\lowercase-letter_I 337
▁v\lowercase-letter_B 338
▁v\lowercase-letter_I 339
▁w\lowercase-letter_B 340
▁w\lowercase-letter_I 341
▁x\lowercase-letter_B 342
▁x\lowercase-letter_I 343
▁y\lowercase-letter_B 344
▁y\lowercase-letter_I 345
▁z\lowercase-letter_B 346
▁z\lowercase-letter_I 347
▁{\left-curly-bracket_B 348
▁{\left-curly-bracket_I 349
▁|\vertical-bar_B 350
▁|\vertical-bar_I 351
▁||\double-vertical-bar_B 352
▁||\double-vertical-bar_I 353
▁}\right-curly-bracket_B 354
▁}\right-curly-bracket_I 355
▁~~\tilde_B 356
▁~~\tilde_I 357
▁¡\inverted-exclamation-mark_B 358
▁¡\inverted-exclamation-mark_I 359
▁£\pound-sign_B 360
▁£\pound-sign_I 361
▁¥\yen-sign_B 362
▁¥\yen-sign_I 363
▁§\section-sign_B 364
▁§\section-sign_I 365
▁°\degree-sign_B 366
▁°\degree-sign_I 367
▁²\superscript-two_B 368
▁²\superscript-two_I 369
▁³\superscript-three_B 370
▁³\superscript-three_I 371
▁µ\micro-sign_B 372
▁µ\micro-sign_I 373
▁·\middle-dot_B 374
▁·\middle-dot_I 375
▁½\one-half_B 376
▁½\one-half_I 377
▁À\letter_B 378
▁À\letter_I 379
▁À\uppercase-letter_B 380
▁À\uppercase-letter_I 381
▁Í\letter_B 382
▁Í\letter_I 383
▁×\multiplication-sign_B 384
▁×\multiplication-sign_I 385
▁Ü\letter_B 386
▁Ü\letter_I 387
▁Ü\uppercase-letter_B 388
▁Ü\uppercase-letter_I 389
▁à\lowercase-letter_B 390
▁à\lowercase-letter_I 391
▁è\lowercase-letter_B 392
▁è\lowercase-letter_I 393
▁í\lowercase-letter_B 394
▁í\lowercase-letter_I 395
▁÷\division-sign_B 396
▁÷\division-sign_I 397
▁–\dash_B 398
▁–\dash_I 399
▁—\em-dash_B 400
▁—\em-dash_I 401
▁•\bullet_B 402
▁•\bullet_I 403
▁…\ellipsis_B 404
▁…\ellipsis_I 405
▁_B 406
▁_I 407
▁Siri_B 408
▁Siri_I 409
▁hey_B 410
▁hey_I 411
s_B 412
s_I 413
▁the_B 414
▁the_I 415
'_B 416
'_I 417
▁you_B 418
▁you_I 419
▁to_B 420
▁to_I 421
▁call_B 422
▁call_I 423
▁and_B 424
▁and_I 425
▁what_B 426
▁what_I 427
▁it_B 428
▁it_I 429
▁is_B 430
▁is_I 431
▁for_B 432
▁for_I 433
t_B 434
t_I 435
▁in_B 436
▁in_I 437
▁play_B 438
▁play_I 439
▁on_B 440
▁on_I 441
▁me_B 442
▁me_I 443
m_B 444
m_I 445
▁my_B 446
▁my_I 447
▁that_B 448
▁that_I 449
▁of_B 450
▁of_I 451
▁turn_B 452
▁turn_I 453
▁yes_B 454
▁yes_I 455
▁I_B 456
▁I_I 457
▁do_B 458
▁do_I 459
▁how_B 460
▁how_I 461
▁no_B 462
▁no_I 463
▁can_B 464
▁can_I 465
▁have_B 466
▁have_I 467
▁are_B 468
▁are_I 469
▁be_B 470
▁be_I 471
▁up_B 472
▁up_I 473
▁off_B 474
▁off_I 475
▁text_B 476
▁text_I 477
▁at_B 478
▁at_I 479
▁set_B 480
▁set_I 481
▁we_B 482
▁we_I 483
re_B 484
re_I 485
▁so_B 486
▁so_I 487
▁just_B 488
▁just_I 489
._B 490
._I 491
▁time_B 492
▁time_I 493
▁your_B 494
▁your_I 495
▁get_B 496
▁get_I 497
▁this_B 498
▁this_I 499
▁with_B 500
▁with_I 501
▁five_B 502
▁five_I 503
n_B 504
n_I 505
▁two_B 506
▁two_I 507
▁by_B 508
▁by_I 509
▁was_B 510
▁was_I 511
ing_B 512
ing_I 513
▁if_B 514
▁if_I 515
▁not_B 516
▁not_I 517
▁like_B 518
▁like_I 519
▁timer_B 520
▁timer_I 521
▁minutes_B 522
▁minutes_I 523
▁know_B 524
▁know_I 525
▁go_B 526
▁go_I 527
▁stop_B 528
▁stop_I 529
▁but_B 530
▁but_I 531
ed_B 532
ed_I 533
d_B 534
d_I 535
▁he_B 536
▁he_I 537
ll_B 538
ll_I 539
▁send_B 540
▁send_I 541
▁will_B 542
▁will_I 543
▁out_B 544
▁out_I 545
▁don_B 546
▁don_I 547
y_B 548
y_I 549
▁today_B 550
▁today_I 551
▁all_B 552
▁all_I 553
▁when_B 554
▁when_I 555
▁did_B 556
▁did_I 557
▁there_B 558
▁there_I 559
▁good_B 560
▁good_I 561
▁three_B 562
▁three_I 563
▁home_B 564
▁home_I 565
er_B 566
er_I 567
▁she_B 568
▁she_I 569
▁music_B 570
▁music_I 571
▁song_B 572
▁song_I 573
▁lights_B 574
▁lights_I 575
▁thirty_B 576
▁thirty_I 577
▁an_B 578
▁an_I 579
▁from_B 580
▁from_I 581
▁a_B 582
▁a_I 583
▁or_B 584
▁or_I 585
▁mom_B 586
▁mom_I 587
▁they_B 588
▁they_I 589
▁about_B 590
▁about_I 591
▁four_B 592
▁four_I 593
▁twenty_B 594
▁twenty_I 595
▁going_B 596
▁going_I 597
▁now_B 598
▁now_I 599
▁alarm_B 600
▁alarm_I 601
▁six_B 602
▁six_I 603
e_B 604
e_I 605
▁volume_B 606
▁volume_I 607
▁eight_B 608
▁eight_I 609
-_B 610
-_I 611
▁seven_B 612
▁seven_I 613
▁weather_B 614
▁weather_I 615
▁her_B 616
▁her_I 617
▁back_B 618
▁back_I 619
▁next_B 620
▁next_I 621
▁want_B 622
▁want_I 623
▁some_B 624
▁some_I 625
▁please_B 626
▁please_I 627
▁tomorrow_B 628
▁tomorrow_I 629
▁love_B 630
▁love_I 631
▁would_B 632
▁would_I 633
▁need_B 634
▁need_I 635
▁nine_B 636
▁nine_I 637
▁take_B 638
▁take_I 639
▁mobile_B 640
▁mobile_I 641
▁ten_B 642
▁ten_I 643
▁down_B 644
▁down_I 645
▁work_B 646
▁work_I 647
▁who_B 648
▁who_I 649
▁see_B 650
▁see_I 651
r_B 652
r_I 653
▁does_B 654
▁does_I 655
▁where_B 656
▁where_I 657
▁percent_B 658
▁percent_I 659
▁am_B 660
▁am_I 661
▁make_B 662
▁make_I 663
▁hundred_B 664
▁hundred_I 665
▁FaceTime_B 666
▁FaceTime_I 667
▁think_B 668
▁think_I 669
▁let_B 670
▁let_I 671
o_B 672
o_I 673
▁right_B 674
▁right_I 675
▁much_B 676
▁much_I 677
▁as_B 678
▁as_I 679
ve_B 680
ve_I 681
▁open_B 682
▁open_I 683
▁come_B 684
▁come_I 685
▁light_B 686
▁light_I 687
▁because_B 688
▁because_I 689
▁thank_B 690
▁thank_I 691
▁got_B 692
▁got_I 693
▁day_B 694
▁day_I 695
▁tell_B 696
▁tell_I 697
▁morning_B 698
▁morning_I 699
▁phone_B 700
▁phone_I 701
▁night_B 702
▁night_I 703
▁gonna_B 704
▁gonna_I 705
a_B 706
a_I 707
▁way_B 708
▁way_I 709
▁room_B 710
▁room_I 711
▁temperature_B 712
▁temperature_I 713
▁show_B 714
▁show_I 715
ly_B 716
ly_I 717
▁him_B 718
▁him_I 719
▁say_B 720
▁say_I 721
▁had_B 722
▁had_I 723
▁here_B 724
▁here_I 725
▁message_B 726
▁message_I 727
▁directions_B 728
▁directions_I 729
▁over_B 730
▁over_I 731
▁forty_B 732
▁forty_I 733
▁put_B 734
▁put_I 735
▁give_B 736
▁give_I 737
▁spell_B 738
▁spell_I 739
▁then_B 740
▁then_I 741
▁dad_B 742
▁dad_I 743
▁them_B 744
▁them_I 745
▁oh_B 746
▁oh_I 747
▁really_B 748
▁really_I 749
▁said_B 750
▁said_I 751
i_B 752
i_I 753
▁number_B 754
▁number_I 755
in_B 756
in_I 757
▁p_B 758
▁p_I 759
▁house_B 760
▁house_I 761
▁find_B 762
▁find_I 763
▁could_B 764
▁could_I 765
▁OK_B 766
▁OK_I 767
▁many_B 768
▁many_I 769
▁fifty_B 770
▁fifty_I 771
▁hi_B 772
▁hi_I 773
▁should_B 774
▁should_I 775
▁name_B 776
▁name_I 777
▁game_B 778
▁game_I 779
es_B 780
es_I 781
▁zero_B 782
▁zero_I 783
al_B 784
al_I 785
▁sure_B 786
▁sure_I 787
▁why_B 788
▁why_I 789
▁YouTube_B 790
▁YouTube_I 791
▁fifteen_B 792
▁fifteen_I 793
▁new_B 794
▁new_I 795
▁well_B 796
▁well_I 797
▁read_B 798
▁read_I 799
le_B 800
le_I 801
▁were_B 802
▁were_I 803
▁last_B 804
▁last_I 805
▁too_B 806
▁too_I 807
▁has_B 808
▁has_I 809
▁something_B 810
▁something_I 811
▁more_B 812
▁more_I 813
▁yeah_B 814
▁yeah_I 815
▁still_B 816
▁still_I 817
▁little_B 818
▁little_I 819
▁been_B 820
▁been_I 821
▁skip_B 822
▁skip_I 823
▁any_B 824
▁any_I 825
▁A_B 826
▁A_I 827
▁doing_B 828
▁doing_I 829
▁S_B 830
▁S_I 831
▁look_B 832
▁look_I 833
▁TV_B 834
▁TV_I 835
▁his_B 836
▁his_I 837
▁tonight_B 838
▁tonight_I 839
▁plus_B 840
▁plus_I 841
ra_B 842
ra_I 843
▁car_B 844
▁car_I 845
▁sorry_B 846
▁sorry_I 847
▁outside_B 848
▁outside_I 849
▁change_B 850
▁change_I 851
na_B 852
na_I 853
p_B 854
p_I 855
▁okay_B 856
▁okay_I 857
k_B 858
k_I 859
▁baby_B 860
▁baby_I 861
▁pause_B 862
▁pause_I 863
▁minute_B 864
▁minute_I 865
▁our_B 866
▁our_I 867
▁mean_B 868
▁mean_I 869
▁pick_B 870
▁pick_I 871
or_B 872
or_I 873
▁bedroom_B 874
▁bedroom_I 875
on_B 876
on_I 877
en_B 878
en_I 879
l_B 880
l_I 881
ne_B 882
ne_I 883
▁left_B 884
▁left_I 885
▁times_B 886
▁times_I 887
▁again_B 888
▁again_I 889
el_B 890
el_I 891
▁thousand_B 892
▁thousand_I 893
▁talk_B 894
▁talk_I 895
▁us_B 896
▁us_I 897
▁living_B 898
▁living_I 899
▁very_B 900
▁very_I 901
▁old_B 902
▁old_I 903
ro_B 904
ro_I 905
g_B 906
g_I 907
▁week_B 908
▁week_I 909
li_B 910
li_I 911
c_B 912
c_I 913
▁people_B 914
▁people_I 915
▁first_B 916
▁first_I 917
la_B 918
la_I 919
▁after_B 920
▁after_I 921
▁start_B 922
▁start_I 923
ion_B 924
ion_I 925
se_B 926
se_I 927
▁other_B 928
▁other_I 929
▁anything_B 930
▁anything_I 931
▁never_B 932
▁never_I 933
▁great_B 934
▁great_I 935
▁also_B 936
▁also_I 937
ch_B 938
ch_I 939
▁help_B 940
▁help_I 941
▁before_B 942
▁before_I 943
▁getting_B 944
▁getting_I 945
▁cancel_B 946
▁cancel_I 947
man_B 948
man_I 949
ri_B 950
ri_I 951
ce_B 952
ce_I 953
▁long_B 954
▁long_I 955
▁hope_B 956
▁hope_I 957
b_B 958
b_I 959
▁school_B 960
▁school_I 961
▁wanna_B 962
▁wanna_I 963
th_B 964
th_I 965
ar_B 966
ar_I 967
▁remind_B 968
▁remind_I 969
▁around_B 970
▁around_I 971
clock_B 972
clock_I 973
▁thanks_B 974
▁thanks_I 975
ton_B 976
ton_I 977
▁only_B 978
▁only_I 979
▁guys_B 980
▁guys_I 981
▁check_B 982
▁check_I 983
▁coming_B 984
▁coming_I 985
lo_B 986
lo_I 987
▁feel_B 988
▁feel_I 989
▁twelve_B 990
▁twelve_I 991
▁B_B 992
▁B_I 993
A_B 994
A_I 995
w_B 996
w_I 997
▁happy_B 998
▁happy_I 999
▁done_B 1000
▁done_I 1001
▁cell_B 1002
▁cell_I 1003
ta_B 1004
ta_I 1005
il_B 1006
il_I 1007
▁even_B 1008
▁even_I 1009
▁o_B 1010
▁o_I 1011
▁into_B 1012
▁into_I 1013
ma_B 1014
ma_I 1015
f_B 1016
f_I 1017
ca_B 1018
ca_I 1019
▁better_B 1020
▁better_I 1021
▁office_B 1022
▁office_I 1023
▁kitchen_B 1024
▁kitchen_I 1025
▁movie_B 1026
▁movie_I 1027
▁LOL_B 1028
▁LOL_I 1029
▁picture_B 1030
▁picture_I 1031
▁New_B 1032
▁New_I 1033
te_B 1034
te_I 1035
▁hour_B 1036
▁hour_I 1037
▁maybe_B 1038
▁maybe_I 1039
▁P_B 1040
▁P_I 1041
▁told_B 1042
▁told_I 1043
▁La_B 1044
▁La_I 1045
▁John_B 1046
▁John_I 1047
▁big_B 1048
▁big_I 1049
ie_B 1050
ie_I 1051
▁probably_B 1052
▁probably_I 1053
▁leave_B 1054
▁leave_I 1055
▁kids_B 1056
▁kids_I 1057
sh_B 1058
sh_I 1059
ck_B 1060
ck_I 1061
▁best_B 1062
▁best_I 1063
ers_B 1064
ers_I 1065
ur_B 1066
ur_I 1067
▁score_B 1068
▁score_I 1069
▁bring_B 1070
▁bring_I 1071
▁O_B 1072
▁O_I 1073
▁add_B 1074
▁add_I 1075
to_B 1076
to_I 1077
▁through_B 1078
▁through_I 1079
h_B 1080
h_I 1081
▁days_B 1082
▁days_I 1083
▁reply_B 1084
▁reply_I 1085
▁e_B 1086
▁e_I 1087
▁lot_B 1088
▁lot_I 1089
▁sixty_B 1090
▁sixty_I 1091
▁everything_B 1092
▁everything_I 1093
▁E_B 1094
▁E_I 1095
son_B 1096
son_I 1097
an_B 1098
an_I 1099
▁wake_B 1100
▁wake_I 1101
▁things_B 1102
▁things_I 1103
▁hello_B 1104
▁hello_I 1105
▁year_B 1106
▁year_I 1107
▁eleven_B 1108
▁eleven_I 1109
▁seconds_B 1110
▁seconds_I 1111
▁until_B 1112
▁until_I 1113
▁dollars_B 1114
▁dollars_I 1115
▁iPhone_B 1116
▁iPhone_I 1117
z_B 1118
z_I 1119
▁thing_B 1120
▁thing_I 1121
▁won_B 1122
▁won_I 1123
▁thought_B 1124
▁thought_I 1125
▁wanted_B 1126
▁wanted_I 1127
▁divided_B 1128
▁divided_I 1129
▁ha_B 1130
▁ha_I 1131
▁try_B 1132
▁try_I 1133
▁C_B 1134
▁C_I 1135
x_B 1136
x_I 1137
▁which_B 1138
▁which_I 1139
▁seventy_B 1140
▁seventy_I 1141
▁girl_B 1142
▁girl_I 1143
▁wife_B 1144
▁wife_I 1145
us_B 1146
us_I 1147
C_B 1148
C_I 1149
ty_B 1150
ty_I 1151
▁keep_B 1152
▁keep_I 1153
▁watch_B 1154
▁watch_I 1155
▁life_B 1156
▁life_I 1157
▁hours_B 1158
▁hours_I 1159
de_B 1160
de_I 1161
mo_B 1162
mo_I 1163
▁playing_B 1164
▁playing_I 1165
ry_B 1166
ry_I 1167
▁bad_B 1168
▁bad_I 1169
est_B 1170
est_I 1171
▁speaker_B 1172
▁speaker_I 1173
▁T_B 1174
▁T_I 1175
▁Na_B 1176
▁Na_I 1177
di_B 1178
di_I 1179
ke_B 1180
ke_I 1181
▁trying_B 1182
▁trying_I 1183
▁money_B 1184
▁money_I 1185
▁messages_B 1186
▁messages_I 1187
▁D_B 1188
▁D_I 1189
ter_B 1190
ter_I 1191
▁than_B 1192
▁than_I 1193
▁another_B 1194
▁another_I 1195
ation_B 1196
ation_I 1197
u_B 1198
u_I 1199
▁list_B 1200
▁list_I 1201
▁near_B 1202
▁near_I 1203
▁Apple_B 1204
▁Apple_I 1205
▁family_B 1206
▁family_I 1207
S_B 1208
S_I 1209
▁de_B 1210
▁de_I 1211
▁playlist_B 1212
▁playlist_I 1213
▁Chris_B 1214
▁Chris_I 1215
mail_B 1216
mail_I 1217
▁soon_B 1218
▁soon_I 1219
▁close_B 1220
▁close_I 1221
▁K_B 1222
▁K_I 1223
▁friend_B 1224
▁friend_I 1225
po_B 1226
po_I 1227
no_B 1228
no_I 1229
▁their_B 1230
▁their_I 1231
▁ask_B 1232
▁ask_I 1233
▁already_B 1234
▁already_I 1235
▁stuff_B 1236
▁stuff_I 1237
ba_B 1238
ba_I 1239
▁went_B 1240
▁went_I 1241
▁Ma_B 1242
▁Ma_I 1243
is_B 1244
is_I 1245
▁might_B 1246
▁might_I 1247
▁mind_B 1248
▁mind_I 1249
▁bit_B 1250
▁bit_I 1251
▁fast_B 1252
▁fast_I 1253
ia_B 1254
ia_I 1255
▁eat_B 1256
▁eat_I 1257
N_B 1258
N_I 1259
T_B 1260
T_I 1261
▁far_B 1262
▁far_I 1263
ic_B 1264
ic_I 1265
▁F_B 1266
▁F_I 1267
▁away_B 1268
▁away_I 1269
▁live_B 1270
▁live_I 1271
▁eighty_B 1272
▁eighty_I 1273
▁yet_B 1274
▁yet_I 1275
▁meet_B 1276
▁meet_I 1277
▁working_B 1278
▁working_I 1279
▁door_B 1280
▁door_I 1281
▁fucking_B 1282
▁fucking_I 1283
ment_B 1284
ment_I 1285
▁store_B 1286
▁store_I 1287
▁those_B 1288
▁those_I 1289
▁Christmas_B 1290
▁Christmas_I 1291
ver_B 1292
ver_I 1293
▁De_B 1294
▁De_I 1295
▁care_B 1296
▁care_I 1297
▁nice_B 1298
▁nice_I 1299
ol_B 1300
ol_I 1301
▁use_B 1302
▁use_I 1303
▁ready_B 1304
▁ready_I 1305
▁able_B 1306
▁able_I 1307
▁later_B 1308
▁later_I 1309
▁ninety_B 1310
▁ninety_I 1311
▁Friday_B 1312
▁Friday_I 1313
▁made_B 1314
▁made_I 1315
ti_B 1316
ti_I 1317
▁The_B 1318
▁The_I 1319
▁fuck_B 1320
▁fuck_I 1321
▁birthday_B 1322
▁birthday_I 1323
ate_B 1324
ate_I 1325
▁search_B 1326
▁search_I 1327
▁always_B 1328
▁always_I 1329
id_B 1330
id_I 1331
▁doesn_B 1332
▁doesn_I 1333
▁shut_B 1334
▁shut_I 1335
land_B 1336
land_I 1337
▁half_B 1338
▁half_I 1339
▁sleep_B 1340
▁sleep_I 1341
it_B 1342
it_I 1343
▁man_B 1344
▁man_I 1345
▁being_B 1346
▁being_I 1347
ul_B 1348
ul_I 1349
▁rain_B 1350
▁rain_I 1351
▁weekend_B 1352
▁weekend_I 1353
▁having_B 1354
▁having_I 1355
ine_B 1356
ine_I 1357
B_B 1358
B_I 1359
▁high_B 1360
▁high_I 1361
▁pretty_B 1362
▁pretty_I 1363
ci_B 1364
ci_I 1365
D_B 1366
D_I 1367
▁G_B 1368
▁G_I 1369
▁place_B 1370
▁place_I 1371
▁dinner_B 1372
▁dinner_I 1373
▁water_B 1374
▁water_I 1375
va_B 1376
va_I 1377
▁shit_B 1378
▁shit_I 1379
▁wait_B 1380
▁wait_I 1381
da_B 1382
da_I 1383
▁Mike_B 1384
▁Mike_I 1385
M_B 1386
M_I 1387
ac_B 1388
ac_I 1389
▁looking_B 1390
▁looking_I 1391
pe_B 1392
pe_I 1393
▁radio_B 1394
▁radio_I 1395
▁end_B 1396
▁end_I 1397
me_B 1398
me_I 1399
▁app_B 1400
▁app_I 1401
▁called_B 1402
▁called_I 1403
▁food_B 1404
▁food_I 1405
▁bed_B 1406
▁bed_I 1407
▁shuffle_B 1408
▁shuffle_I 1409
▁free_B 1410
▁free_I 1411
▁Co_B 1412
▁Co_I 1413
▁c_B 1414
▁c_I 1415
▁joke_B 1416
▁joke_I 1417
▁nothing_B 1418
▁nothing_I 1419
▁fun_B 1420
▁fun_I 1421
ley_B 1422
ley_I 1423
▁actually_B 1424
▁actually_I 1425
▁nineteen_B 1426
▁nineteen_I 1427
▁pictures_B 1428
▁pictures_I 1429
▁Al_B 1430
▁Al_I 1431
et_B 1432
et_I 1433
▁guess_B 1434
▁guess_I 1435
▁kind_B 1436
▁kind_I 1437
co_B 1438
co_I 1439
▁every_B 1440
▁every_I 1441
▁Man_B 1442
▁Man_I 1443
▁same_B 1444
▁same_I 1445
▁leaving_B 1446
▁leaving_I 1447
▁hear_B 1448
▁hear_I 1449
▁Mo_B 1450
▁Mo_I 1451
▁Ba_B 1452
▁Ba_I 1453
▁real_B 1454
▁real_I 1455
▁Saturday_B 1456
▁Saturday_I 1457
ni_B 1458
ni_I 1459
▁Netflix_B 1460
▁Netflix_I 1461
▁talking_B 1462
▁talking_I 1463
▁Monday_B 1464
▁Monday_I 1465
▁lamp_B 1466
▁lamp_I 1467
▁Michael_B 1468
▁Michael_I 1469
P_B 1470
P_I 1471
▁sounds_B 1472
▁sounds_I 1473
▁Ca_B 1474
▁Ca_I 1475
op_B 1476
op_I 1477
▁fine_B 1478
▁fine_I 1479
▁late_B 1480
▁late_I 1481
▁W_B 1482
▁W_I 1483
I_B 1484
I_I 1485
▁Street_B 1486
▁Street_I 1487
▁movies_B 1488
▁movies_I 1489
▁answer_B 1490
▁answer_I 1491
ga_B 1492
ga_I 1493
▁Ra_B 1494
▁Ra_I 1495
▁driving_B 1496
▁driving_I 1497
▁Road_B 1498
▁Road_I 1499
▁pay_B 1500
▁pay_I 1501
▁second_B 1502
▁second_I 1503
R_B 1504
R_I 1505
▁ever_B 1506
▁ever_I 1507
bi_B 1508
bi_I 1509
vi_B 1510
vi_I 1511
▁few_B 1512
▁few_I 1513
▁yesterday_B 1514
▁yesterday_I 1515
ity_B 1516
ity_I 1517
▁job_B 1518
▁job_I 1519
▁con_B 1520
▁con_I 1521
▁songs_B 1522
▁songs_I 1523
▁Le_B 1524
▁Le_I 1525
▁Ta_B 1526
▁Ta_I 1527
▁else_B 1528
▁else_I 1529
▁video_B 1530
▁video_I 1531
▁sent_B 1532
▁sent_I 1533
per_B 1534
per_I 1535
dy_B 1536
dy_I 1537
mi_B 1538
mi_I 1539
▁head_B 1540
▁head_I 1541
▁while_B 1542
▁while_I 1543
▁appointment_B 1544
▁appointment_I 1545
▁red_B 1546
▁red_I 1547
▁since_B 1548
▁since_I 1549
do_B 1550
do_I 1551
O_B 1552
O_I 1553
▁hard_B 1554
▁hard_I 1555
▁run_B 1556
▁run_I 1557
▁stay_B 1558
▁stay_I 1559
▁order_B 1560
▁order_I 1561
▁Ro_B 1562
▁Ro_I 1563
▁front_B 1564
▁front_I 1565
▁most_B 1566
▁most_I 1567
▁dog_B 1568
▁dog_I 1569
▁Mi_B 1570
▁Mi_I 1571
at_B 1572
at_I 1573
ir_B 1574
ir_I 1575
▁between_B 1576
▁between_I 1577
ard_B 1578
ard_I 1579
com_B 1580
com_I 1581
▁reminder_B 1582
▁reminder_I 1583
▁may_B 1584
▁may_I 1585
▁buy_B 1586
▁buy_I 1587
▁Re_B 1588
▁Re_I 1589
ent_B 1590
ent_I 1591
▁Mar_B 1592
▁Mar_I 1593
ster_B 1594
ster_I 1595
▁understand_B 1596
▁understand_I 1597
▁remember_B 1598
▁remember_I 1599
▁drive_B 1600
▁drive_I 1601
▁thinking_B 1602
▁thinking_I 1603
ka_B 1604
ka_I 1605
▁David_B 1606
▁David_I 1607
▁date_B 1608
▁date_I 1609
▁both_B 1610
▁both_I 1611
▁meeting_B 1612
▁meeting_I 1613
▁Spanish_B 1614
▁Spanish_I 1615
den_B 1616
den_I 1617
ge_B 1618
ge_I 1619
ha_B 1620
ha_I 1621
age_B 1622
age_I 1623
▁though_B 1624
▁though_I 1625
▁Me_B 1626
▁Me_I 1627
▁news_B 1628
▁news_I 1629
▁these_B 1630
▁these_I 1631
▁someone_B 1632
▁someone_I 1633
▁un_B 1634
▁un_I 1635
▁cause_B 1636
▁cause_I 1637
▁supposed_B 1638
▁supposed_I 1639
▁couple_B 1640
▁couple_I 1641
ner_B 1642
ner_I 1643
▁forward_B 1644
▁forward_I 1645
▁schedule_B 1646
▁schedule_I 1647
▁lunch_B 1648
▁lunch_I 1649
▁Ho_B 1650
▁Ho_I 1651
▁Ja_B 1652
▁Ja_I 1653
▁album_B 1654
▁album_I 1655
▁together_B 1656
▁together_I 1657
tion_B 1658
tion_I 1659
▁football_B 1660
▁football_I 1661
ies_B 1662
ies_I 1663
lu_B 1664
lu_I 1665
E_B 1666
E_I 1667
▁co_B 1668
▁co_I 1669
▁minus_B 1670
▁minus_I 1671
▁games_B 1672
▁games_I 1673
▁friends_B 1674
▁friends_I 1675
L_B 1676
L_I 1677
▁beautiful_B 1678
▁beautiful_I 1679
▁lower_B 1680
▁lower_I 1681
▁blue_B 1682
▁blue_I 1683
▁pro_B 1684
▁pro_I 1685
▁cool_B 1686
▁cool_I 1687
▁God_B 1688
▁God_I 1689
▁Ka_B 1690
▁Ka_I 1691
▁Sunday_B 1692
▁Sunday_I 1693
un_B 1694
un_I 1695
▁Do_B 1696
▁Do_I 1697
▁U_B 1698
▁U_I 1699
ive_B 1700
ive_I 1701
tic_B 1702
tic_I 1703
be_B 1704
be_I 1705
▁Ha_B 1706
▁Ha_I 1707
▁feeling_B 1708
▁feeling_I 1709
ian_B 1710
ian_I 1711
▁Ar_B 1712
▁Ar_I 1713
able_B 1714
able_I 1715
▁girls_B 1716
▁girls_I 1717
▁Bo_B 1718
▁Bo_I 1719
ting_B 1720
ting_I 1721
▁person_B 1722
▁person_I 1723
▁point_B 1724
▁point_I 1725
▁Joe_B 1726
▁Joe_I 1727
go_B 1728
go_I 1729
▁truck_B 1730
▁truck_I 1731
der_B 1732
der_I 1733
▁top_B 1734
▁top_I 1735
▁eighteen_B 1736
▁eighteen_I 1737
▁looks_B 1738
▁looks_I 1739
▁forecast_B 1740
▁forecast_I 1741
pa_B 1742
pa_I 1743
▁saying_B 1744
▁saying_I 1745
▁North_B 1746
▁North_I 1747
▁West_B 1748
▁West_I 1749
▁power_B 1750
▁power_I 1751
ant_B 1752
ant_I 1753
nk_B 1754
nk_I 1755
▁Day_B 1756
▁Day_I 1757
▁rewind_B 1758
▁rewind_I 1759
▁guy_B 1760
▁guy_I 1761
▁years_B 1762
▁years_I 1763
▁came_B 1764
▁came_I 1765
▁heart_B 1766
▁heart_I 1767
▁J_B 1768
▁J_I 1769
▁mommy_B 1770
▁mommy_I 1771
▁Jo_B 1772
▁Jo_I 1773
am_B 1774
am_I 1775
▁Sa_B 1776
▁Sa_I 1777
bo_B 1778
bo_I 1779
▁miss_B 1780
▁miss_I 1781
▁world_B 1782
▁world_I 1783
▁mother_B 1784
▁mother_I 1785
▁believe_B 1786
▁believe_I 1787
▁Pa_B 1788
▁Pa_I 1789
▁address_B 1790
▁address_I 1791
wa_B 1792
wa_I 1793
lin_B 1794
lin_I 1795
▁problem_B 1796
▁problem_I 1797
▁super_B 1798
▁super_I 1799
all_B 1800
all_I 1801
wi_B 1802
wi_I 1803
▁Google_B 1804
▁Google_I 1805
▁full_B 1806
▁full_I 1807
▁season_B 1808
▁season_I 1809
▁afternoon_B 1810
▁afternoon_I 1811
▁early_B 1812
▁early_I 1813
▁R_B 1814
▁R_I 1815
▁different_B 1816
▁different_I 1817
▁walk_B 1818
▁walk_I 1819
▁white_B 1820
▁white_I 1821
pi_B 1822
pi_I 1823
▁Spotify_B 1824
▁Spotify_I 1825
▁part_B 1826
▁part_I 1827
▁chance_B 1828
▁chance_I 1829
ru_B 1830
ru_I 1831
▁California_B 1832
▁California_I 1833
▁card_B 1834
▁card_I 1835
▁party_B 1836
▁party_I 1837
▁taking_B 1838
▁taking_I 1839
▁story_B 1840
▁story_I 1841
forward_B 1842
forward_I 1843
▁Thursday_B 1844
▁Thursday_I 1845
▁Lo_B 1846
▁Lo_I 1847
▁sister_B 1848
▁sister_I 1849
▁side_B 1850
▁side_I 1851
▁Power_B 1852
▁Power_I 1853
▁flashlight_B 1854
▁flashlight_I 1855
ad_B 1856
ad_I 1857
▁funny_B 1858
▁funny_I 1859
▁bitch_B 1860
▁bitch_I 1861
▁took_B 1862
▁took_I 1863
▁till_B 1864
▁till_I 1865
▁bar_B 1866
▁bar_I 1867
▁videos_B 1868
▁videos_I 1869
sta_B 1870
sta_I 1871
▁hot_B 1872
▁hot_I 1873
▁town_B 1874
▁town_I 1875
G_B 1876
G_I 1877
▁brother_B 1878
▁brother_I 1879
as_B 1880
as_I 1881
sa_B 1882
sa_I 1883
up_B 1884
up_I 1885
▁husband_B 1886
▁husband_I 1887
▁found_B 1888
▁found_I 1889
▁asked_B 1890
▁asked_I 1891
▁haven_B 1892
▁haven_I 1893
▁Ben_B 1894
▁Ben_I 1895
▁boy_B 1896
▁boy_I 1897
▁either_B 1898
▁either_I 1899
▁team_B 1900
▁team_I 1901
ist_B 1902
ist_I 1903
▁forgot_B 1904
▁forgot_I 1905
▁El_B 1906
▁El_I 1907
▁air_B 1908
▁air_I 1909
▁fire_B 1910
▁fire_I 1911
▁move_B 1912
▁move_I 1913
▁bye_B 1914
▁bye_I 1915
▁Mark_B 1916
▁Mark_I 1917
▁James_B 1918
▁James_I 1919
▁black_B 1920
▁black_I 1921
▁plan_B 1922
▁plan_I 1923
▁Paul_B 1924
▁Paul_I 1925
▁York_B 1926
▁York_I 1927
▁ex_B 1928
▁ex_I 1929
gu_B 1930
gu_I 1931
▁Wednesday_B 1932
▁Wednesday_I 1933
ville_B 1934
ville_I 1935
▁St_B 1936
▁St_I 1937
ber_B 1938
ber_I 1939
▁Dan_B 1940
▁Dan_I 1941
▁Florida_B 1942
▁Florida_I 1943
▁Bu_B 1944
▁Bu_I 1945
▁Di_B 1946
▁Di_I 1947
▁Scott_B 1948
▁Scott_I 1949
fa_B 1950
fa_I 1951
▁San_B 1952
▁San_I 1953
ee_B 1954
ee_I 1955
▁chicken_B 1956
▁chicken_I 1957
um_B 1958
um_I 1959
▁gas_B 1960
▁gas_I 1961
▁South_B 1962
▁South_I 1963
tro_B 1964
tro_I 1965
▁sign_B 1966
▁sign_I 1967
▁favorite_B 1968
▁favorite_I 1969
▁nearest_B 1970
▁nearest_I 1971
▁Mu_B 1972
▁Mu_I 1973
▁Mary_B 1974
▁Mary_I 1975
▁hair_B 1976
▁hair_I 1977
▁rest_B 1978
▁rest_I 1979
▁book_B 1980
▁book_I 1981
▁Vi_B 1982
▁Vi_I 1983
▁wrong_B 1984
▁wrong_I 1985
▁saw_B 1986
▁saw_I 1987
che_B 1988
che_I 1989
▁making_B 1990
▁making_I 1991
▁country_B 1992
▁country_I 1993
▁Texas_B 1994
▁Texas_I 1995
▁almost_B 1996
▁almost_I 1997
▁crazy_B 1998
▁crazy_I 1999
ah_B 2000
ah_I 2001
▁Steve_B 2002
▁Steve_I 2003
▁Matt_B 2004
▁Matt_I 2005
▁Sam_B 2006
▁Sam_I 2007
▁King_B 2008
▁King_I 2009
▁idea_B 2010
▁idea_I 2011
▁whole_B 2012
▁whole_I 2013
▁Ryan_B 2014
▁Ryan_I 2015
▁pre_B 2016
▁pre_I 2017
v_B 2018
v_I 2019
ff_B 2020
ff_I 2021
▁face_B 2022
▁face_I 2023
▁drop_B 2024
▁drop_I 2025
ey_B 2026
ey_I 2027
▁M_B 2028
▁M_I 2029
▁Pe_B 2030
▁Pe_I 2031
▁definitely_B 2032
▁definitely_I 2033
▁daddy_B 2034
▁daddy_I 2035
▁city_B 2036
▁city_I 2037
▁Wi_B 2038
▁Wi_I 2039
▁break_B 2040
▁break_I 2041
▁Doctor_B 2042
▁Doctor_I 2043
▁station_B 2044
▁station_I 2045
mer_B 2046
mer_I 2047
▁ago_B 2048
▁ago_I 2049
ut_B 2050
ut_I 2051
▁wish_B 2052
▁wish_I 2053
ler_B 2054
ler_I 2055
▁service_B 2056
▁service_I 2057
▁rock_B 2058
▁rock_I 2059
▁Brian_B 2060
▁Brian_I 2061
▁sound_B 2062
▁sound_I 2063
▁fan_B 2064
▁fan_I 2065
fi_B 2066
fi_I 2067
▁Little_B 2068
▁Little_I 2069
ja_B 2070
ja_I 2071
ow_B 2072
ow_I 2073
▁Da_B 2074
▁Da_I 2075
▁deal_B 2076
▁deal_I 2077
im_B 2078
im_I 2079
▁bathroom_B 2080
▁bathroom_I 2081
K_B 2082
K_I 2083
▁sixteen_B 2084
▁sixteen_I 2085
▁anyway_B 2086
▁anyway_I 2087
▁calling_B 2088
▁calling_I 2089
▁color_B 2090
▁color_I 2091
▁question_B 2092
▁question_I 2093
▁whatever_B 2094
▁whatever_I 2095
▁cat_B 2096
▁cat_I 2097
▁dance_B 2098
▁dance_I 2099
os_B 2100
os_I 2101
tu_B 2102
tu_I 2103
▁Mode_B 2104
▁Mode_I 2105
▁enough_B 2106
▁enough_I 2107
port_B 2108
port_I 2109
▁Tuesday_B 2110
▁Tuesday_I 2111
▁H_B 2112
▁H_I 2113
▁says_B 2114
▁says_I 2115
▁Alexa_B 2116
▁Alexa_I 2117
▁ass_B 2118
▁ass_I 2119
F_B 2120
F_I 2121
▁stupid_B 2122
▁stupid_I 2123
▁Park_B 2124
▁Park_I 2125
▁word_B 2126
▁word_I 2127
▁Tom_B 2128
▁Tom_I 2129
▁Lil_B 2130
▁Lil_I 2131
way_B 2132
way_I 2133
▁own_B 2134
▁own_I 2135
▁shop_B 2136
▁shop_I 2137
▁louder_B 2138
▁louder_I 2139
▁Low_B 2140
▁Low_I 2141
▁bag_B 2142
▁bag_I 2143
▁myself_B 2144
▁myself_I 2145
▁wasn_B 2146
▁wasn_I 2147
▁running_B 2148
▁running_I 2149
▁glad_B 2150
▁glad_I 2151
▁Car_B 2152
▁Car_I 2153
▁clean_B 2154
▁clean_I 2155
▁Ga_B 2156
▁Ga_I 2157
▁month_B 2158
▁month_I 2159
▁Jeff_B 2160
▁Jeff_I 2161
ted_B 2162
ted_I 2163
▁evening_B 2164
▁evening_I 2165
▁Time_B 2166
▁Time_I 2167
▁die_B 2168
▁die_I 2169
▁low_B 2170
▁low_I 2171
ki_B 2172
ki_I 2173
▁ice_B 2174
▁ice_I 2175
▁contact_B 2176
▁contact_I 2177
▁table_B 2178
▁table_I 2179
▁wants_B 2180
▁wants_I 2181
▁battery_B 2182
▁battery_I 2183
ham_B 2184
ham_I 2185
▁Mama_B 2186
▁Mama_I 2187
line_B 2188
line_I 2189
▁kid_B 2190
▁kid_I 2191
ger_B 2192
ger_I 2193
▁Ri_B 2194
▁Ri_I 2195
▁Ne_B 2196
▁Ne_I 2197
ary_B 2198
ary_I 2199
▁hang_B 2200
▁hang_I 2201
tch_B 2202
tch_I 2203
ain_B 2204
ain_I 2205
▁star_B 2206
▁star_I 2207
bu_B 2208
bu_I 2209
▁Kevin_B 2210
▁Kevin_I 2211
ho_B 2212
ho_I 2213
▁restaurant_B 2214
▁restaurant_I 2215
▁course_B 2216
▁course_I 2217
▁snow_B 2218
▁snow_I 2219
▁Taylor_B 2220
▁Taylor_I 2221
nd_B 2222
nd_I 2223
▁fourteen_B 2224
▁fourteen_I 2225
▁Lu_B 2226
▁Lu_I 2227
V_B 2228
V_I 2229
▁heading_B 2230
▁heading_I 2231
▁line_B 2232
▁line_I 2233
▁used_B 2234
▁used_I 2235
▁hate_B 2236
▁hate_I 2237
▁somebody_B 2238
▁somebody_I 2239
▁thirteen_B 2240
▁thirteen_I 2241
▁location_B 2242
▁location_I 2243
▁perfect_B 2244
▁perfect_I 2245
▁definition_B 2246
▁definition_I 2247
▁Te_B 2248
▁Te_I 2249
les_B 2250
les_I 2251
sha_B 2252
sha_I 2253
▁awesome_B 2254
▁awesome_I 2255
▁Mc_B 2256
▁Mc_I 2257
▁Walmart_B 2258
▁Walmart_I 2259
▁dial_B 2260
▁dial_I 2261
▁Master_B 2262
▁Master_I 2263
he_B 2264
he_I 2265
ling_B 2266
ling_I 2267
▁busy_B 2268
▁busy_I 2269
▁case_B 2270
▁case_I 2271
▁N_B 2272
▁N_I 2273
▁repeat_B 2274
▁repeat_I 2275
▁Dave_B 2276
▁Dave_I 2277
ness_B 2278
ness_I 2279
by_B 2280
by_I 2281
▁heard_B 2282
▁heard_I 2283
▁once_B 2284
▁once_I 2285
lan_B 2286
lan_I 2287
▁least_B 2288
▁least_I 2289
▁Go_B 2290
▁Go_I 2291
▁versus_B 2292
▁versus_I 2293
▁sing_B 2294
▁sing_I 2295
▁Alex_B 2296
▁Alex_I 2297
▁track_B 2298
▁track_I 2299
▁area_B 2300
▁area_I 2301
wood_B 2302
wood_I 2303
Fi_B 2304
Fi_I 2305
field_B 2306
field_I 2307
▁V_B 2308
▁V_I 2309
▁information_B 2310
▁information_I 2311
▁under_B 2312
▁under_I 2313
▁cold_B 2314
▁cold_I 2315
▁waiting_B 2316
▁waiting_I 2317
▁account_B 2318
▁account_I 2319
▁Bob_B 2320
▁Bob_I 2321
▁available_B 2322
▁available_I 2323
▁daughter_B 2324
▁daughter_I 2325
▁drink_B 2326
▁drink_I 2327
▁without_B 2328
▁without_I 2329
ina_B 2330
ina_I 2331
▁American_B 2332
▁American_I 2333
▁Brown_B 2334
▁Brown_I 2335
▁coffee_B 2336
▁coffee_I 2337
▁resume_B 2338
▁resume_I 2339
H_B 2340
H_I 2341
vo_B 2342
vo_I 2343
ab_B 2344
ab_I 2345
▁Black_B 2346
▁Black_I 2347
▁test_B 2348
▁test_I 2349
▁subtitles_B 2350
▁subtitles_I 2351
▁trip_B 2352
▁trip_I 2353
king_B 2354
king_I 2355
▁garage_B 2356
▁garage_I 2357
▁Jim_B 2358
▁Jim_I 2359
▁Hu_B 2360
▁Hu_I 2361
cu_B 2362
cu_I 2363
cha_B 2364
cha_I 2365
▁post_B 2366
▁post_I 2367
▁continue_B 2368
▁continue_I 2369
cho_B 2370
cho_I 2371
▁Po_B 2372
▁Po_I 2373
za_B 2374
za_I 2375
▁chill_B 2376
▁chill_I 2377
ven_B 2378
ven_I 2379
▁Du_B 2380
▁Du_I 2381
▁knock_B 2382
▁knock_I 2383
▁hit_B 2384
▁hit_I 2385
▁everyone_B 2386
▁everyone_I 2387
▁Be_B 2388
▁Be_I 2389
▁An_B 2390
▁An_I 2391
gg_B 2392
gg_I 2393
▁Avenue_B 2394
▁Avenue_I 2395
▁iPad_B 2396
▁iPad_I 2397
ful_B 2398
ful_I 2399
mar_B 2400
mar_I 2401
▁grandma_B 2402
▁grandma_I 2403
ble_B 2404
ble_I 2405
▁each_B 2406
▁each_I 2407
▁unread_B 2408
▁unread_I 2409
▁class_B 2410
▁class_I 2411
▁small_B 2412
▁small_I 2413
▁Fortnite_B 2414
▁Fortnite_I 2415
▁Jason_B 2416
▁Jason_I 2417
▁cut_B 2418
▁cut_I 2419
▁episode_B 2420
▁episode_I 2421
▁Bra_B 2422
▁Bra_I 2423
▁ahead_B 2424
▁ahead_I 2425
▁channel_B 2426
▁channel_I 2427
▁babe_B 2428
▁babe_I 2429
▁yourself_B 2430
▁yourself_I 2431
▁Bar_B 2432
▁Bar_I 2433
▁ride_B 2434
▁ride_I 2435
fl_B 2436
fl_I 2437
mon_B 2438
mon_I 2439
▁win_B 2440
▁win_I 2441
▁Wa_B 2442
▁Wa_I 2443
▁doctor_B 2444
▁doctor_I 2445
ugh_B 2446
ugh_I 2447
▁Ni_B 2448
▁Ni_I 2449
▁Kim_B 2450
▁Kim_I 2451
▁Li_B 2452
▁Li_I 2453
si_B 2454
si_I 2455
▁Col_B 2456
▁Col_I 2457
▁reason_B 2458
▁reason_I 2459
▁L_B 2460
▁L_I 2461
▁Ed_B 2462
▁Ed_I 2463
▁forget_B 2464
▁forget_I 2465
▁Nick_B 2466
▁Nick_I 2467
▁ma_B 2468
▁ma_I 2469
▁podcast_B 2470
▁podcast_I 2471
▁Smith_B 2472
▁Smith_I 2473
▁World_B 2474
▁World_I 2475
▁Con_B 2476
▁Con_I 2477
▁Jackson_B 2478
▁Jackson_I 2479
▁figure_B 2480
▁figure_I 2481
ette_B 2482
ette_I 2483
▁shower_B 2484
▁shower_I 2485
▁dis_B 2486
▁dis_I 2487
▁ho_B 2488
▁ho_I 2489
▁Will_B 2490
▁Will_I 2491
▁seventeen_B 2492
▁seventeen_I 2493
▁trailer_B 2494
▁trailer_I 2495
ya_B 2496
ya_I 2497
▁comp_B 2498
▁comp_I 2499
▁Se_B 2500
▁Se_I 2501
▁Disney_B 2502
▁Disney_I 2503
▁box_B 2504
▁box_I 2505
▁gave_B 2506
▁gave_I 2507
▁negative_B 2508
▁negative_I 2509
▁voice_B 2510
▁voice_I 2511
▁Cor_B 2512
▁Cor_I 2513
ze_B 2514
ze_I 2515
▁price_B 2516
▁price_I 2517
▁shopping_B 2518
▁shopping_I 2519
▁goes_B 2520
▁goes_I 2521
ator_B 2522
ator_I 2523
▁America_B 2524
▁America_I 2525
▁State_B 2526
▁State_I 2527
▁road_B 2528
▁road_I 2529
▁hopefully_B 2530
▁hopefully_I 2531
▁weeks_B 2532
▁weeks_I 2533
▁bro_B 2534
▁bro_I 2535
▁Justin_B 2536
▁Justin_I 2537
▁grocery_B 2538
▁grocery_I 2539
▁quick_B 2540
▁quick_I 2541
▁appreciate_B 2542
▁appreciate_I 2543
▁tried_B 2544
▁tried_I 2545
▁closest_B 2546
▁closest_I 2547
▁Ki_B 2548
▁Ki_I 2549
U_B 2550
U_I 2551
▁House_B 2552
▁House_I 2553
▁needs_B 2554
▁needs_I 2555
ance_B 2556
ance_I 2557
▁Green_B 2558
▁Green_I 2559
▁hold_B 2560
▁hold_I 2561
▁basketball_B 2562
▁basketball_I 2563
▁Tim_B 2564
▁Tim_I 2565
less_B 2566
less_I 2567
▁Gu_B 2568
▁Gu_I 2569
▁Bro_B 2570
▁Bro_I 2571
▁He_B 2572
▁He_I 2573
▁Bill_B 2574
▁Bill_I 2575
▁boys_B 2576
▁boys_I 2577
fe_B 2578
fe_I 2579
▁started_B 2580
▁started_I 2581
▁enjoy_B 2582
▁enjoy_I 2583
ten_B 2584
ten_I 2585
rs_B 2586
rs_I 2587
▁Robert_B 2588
▁Robert_I 2589
▁Jack_B 2590
▁Jack_I 2591
▁current_B 2592
▁current_I 2593
pp_B 2594
pp_I 2595
▁safe_B 2596
▁safe_I 2597
▁Eric_B 2598
▁Eric_I 2599
▁update_B 2600
▁update_I 2601
cy_B 2602
cy_I 2603
▁Carolina_B 2604
▁Carolina_I 2605
hy_B 2606
hy_I 2607
▁hurt_B 2608
▁hurt_I 2609
▁Adam_B 2610
▁Adam_I 2611
ng_B 2612
ng_I 2613
▁hand_B 2614
▁hand_I 2615
▁switch_B 2616
▁switch_I 2617
▁tree_B 2618
▁tree_I 2619
▁Ti_B 2620
▁Ti_I 2621
▁dead_B 2622
▁dead_I 2623
▁Drive_B 2624
▁Drive_I 2625
▁Sha_B 2626
▁Sha_I 2627
time_B 2628
time_I 2629
▁everybody_B 2630
▁everybody_I 2631
▁One_B 2632
▁One_I 2633
▁war_B 2634
▁war_I 2635
▁mode_B 2636
▁mode_I 2637
▁Lake_B 2638
▁Lake_I 2639
▁floor_B 2640
▁floor_I 2641
▁Lisa_B 2642
▁Lisa_I 2643
ran_B 2644
ran_I 2645
▁NBA_B 2646
▁NBA_I 2647
▁la_B 2648
▁la_I 2649
▁third_B 2650
▁third_I 2651
▁navigate_B 2652
▁navigate_I 2653
▁state_B 2654
▁state_I 2655
▁dogs_B 2656
▁dogs_I 2657
gan_B 2658
gan_I 2659
▁asking_B 2660
▁asking_I 2661
▁short_B 2662
▁short_I 2663
▁George_B 2664
▁George_I 2665
▁Pop_B 2666
▁Pop_I 2667
▁Pi_B 2668
▁Pi_I 2669
▁Sarah_B 2670
▁Sarah_I 2671
rd_B 2672
rd_I 2673
▁honey_B 2674
▁honey_I 2675
▁group_B 2676
▁group_I 2677
▁welcome_B 2678
▁welcome_I 2679
ated_B 2680
ated_I 2681
▁gone_B 2682
▁gone_I 2683
ney_B 2684
ney_I 2685
▁Facebook_B 2686
▁Facebook_I 2687
▁May_B 2688
▁May_I 2689
▁sick_B 2690
▁sick_I 2691
▁White_B 2692
▁White_I 2693
▁patient_B 2694
▁patient_I 2695
&_B 2696
&_I 2697
▁headed_B 2698
▁headed_I 2699
▁mine_B 2700
▁mine_I 2701
▁Sch_B 2702
▁Sch_I 2703
▁gr_B 2704
▁gr_I 2705
▁happened_B 2706
▁happened_I 2707
end_B 2708
end_I 2709
▁body_B 2710
▁body_I 2711
▁No_B 2712
▁No_I 2713
▁touch_B 2714
▁touch_I 2715
▁anymore_B 2716
▁anymore_I 2717
▁Che_B 2718
▁Che_I 2719
▁wouldn_B 2720
▁wouldn_I 2721
▁Ken_B 2722
▁Ken_I 2723
red_B 2724
red_I 2725
▁audio_B 2726
▁audio_I 2727
▁speak_B 2728
▁speak_I 2729
▁watching_B 2730
▁watching_I 2731
▁increase_B 2732
▁increase_I 2733
▁define_B 2734
▁define_I 2735
ping_B 2736
ping_I 2737
tri_B 2738
tri_I 2739
▁delete_B 2740
▁delete_I 2741
side_B 2742
side_I 2743
▁City_B 2744
▁City_I 2745
▁listen_B 2746
▁listen_I 2747
▁sweet_B 2748
▁sweet_I 2749
W_B 2750
W_I 2751
▁record_B 2752
▁record_I 2753
▁woman_B 2754
▁woman_I 2755
ak_B 2756
ak_I 2757
▁grab_B 2758
▁grab_I 2759
ig_B 2760
ig_I 2761
▁business_B 2762
▁business_I 2763
▁charge_B 2764
▁charge_I 2765
▁note_B 2766
▁note_I 2767
▁Daniel_B 2768
▁Daniel_I 2769
▁google_B 2770
▁google_I 2771
qui_B 2772
qui_I 2773
▁inside_B 2774
▁inside_I 2775
▁Jay_B 2776
▁Jay_I 2777
▁bus_B 2778
▁bus_I 2779
ach_B 2780
ach_I 2781
▁type_B 2782
▁type_I 2783
▁dining_B 2784
▁dining_I 2785
▁wondering_B 2786
▁wondering_I 2787
ding_B 2788
ding_I 2789
▁space_B 2790
▁space_I 2791
tz_B 2792
tz_I 2793
▁must_B 2794
▁must_I 2795
ight_B 2796
ight_I 2797
▁Josh_B 2798
▁Josh_I 2799
▁Ko_B 2800
▁Ko_I 2801
ish_B 2802
ish_I 2803
▁pizza_B 2804
▁pizza_I 2805
▁Fa_B 2806
▁Fa_I 2807
ron_B 2808
ron_I 2809
▁million_B 2810
▁million_I 2811
io_B 2812
io_I 2813
▁roll_B 2814
▁roll_I 2815
ford_B 2816
ford_I 2817
▁bill_B 2818
▁bill_I 2819
▁Mac_B 2820
▁Mac_I 2821
▁Amazon_B 2822
▁Amazon_I 2823
tan_B 2824
tan_I 2825
ring_B 2826
ring_I 2827
▁worry_B 2828
▁worry_I 2829
ris_B 2830
ris_I 2831
▁couldn_B 2832
▁couldn_I 2833
▁visit_B 2834
▁visit_I 2835
▁Georgia_B 2836
▁Georgia_I 2837
▁lock_B 2838
▁lock_I 2839
ny_B 2840
ny_I 2841
▁Kelly_B 2842
▁Kelly_I 2843
ped_B 2844
ped_I 2845
▁Beach_B 2846
▁Beach_I 2847
▁stand_B 2848
▁stand_I 2849
Y_B 2850
Y_I 2851
▁amazing_B 2852
▁amazing_I 2853
▁To_B 2854
▁To_I 2855
▁pack_B 2856
▁pack_I 2857
nie_B 2858
nie_I 2859
▁past_B 2860
▁past_I 2861
ap_B 2862
ap_I 2863
▁park_B 2864
▁park_I 2865
▁feet_B 2866
▁feet_I 2867
ep_B 2868
ep_I 2869
hi_B 2870
hi_I 2871
▁auto_B 2872
▁auto_I 2873
oo_B 2874
oo_I 2875
▁fix_B 2876
▁fix_I 2877
▁We_B 2878
▁We_I 2879
▁English_B 2880
▁English_I 2881
▁Har_B 2882
▁Har_I 2883
▁alarms_B 2884
▁alarms_I 2885
▁Star_B 2886
▁Star_I 2887
▁traffic_B 2888
▁traffic_I 2889
bon_B 2890
bon_I 2891
bb_B 2892
bb_I 2893
▁screen_B 2894
▁screen_I 2895
▁such_B 2896
▁such_I 2897
▁happen_B 2898
▁happen_I 2899
▁pain_B 2900
▁pain_I 2901
▁seen_B 2902
▁seen_I 2903
▁company_B 2904
▁company_I 2905
du_B 2906
du_I 2907
▁Don_B 2908
▁Don_I 2909
▁shark_B 2910
▁shark_I 2911
chi_B 2912
chi_I 2913
▁extra_B 2914
▁extra_I 2915
▁Ke_B 2916
▁Ke_I 2917
▁tired_B 2918
▁tired_I 2919
▁sad_B 2920
▁sad_I 2921
ko_B 2922
ko_I 2923
▁paper_B 2924
▁paper_I 2925
▁pass_B 2926
▁pass_I 2927
▁pull_B 2928
▁pull_I 2929
▁wash_B 2930
▁wash_I 2931
ez_B 2932
ez_I 2933
▁train_B 2934
▁train_I 2935
▁pet_B 2936
▁pet_I 2937
ning_B 2938
ning_I 2939
light_B 2940
light_I 2941
nny_B 2942
nny_I 2943
val_B 2944
val_I 2945
pla_B 2946
pla_I 2947
▁cute_B 2948
▁cute_I 2949
▁cost_B 2950
▁cost_I 2951
▁cream_B 2952
▁cream_I 2953
▁Queen_B 2954
▁Queen_I 2955
▁East_B 2956
▁East_I 2957
▁credit_B 2958
▁credit_I 2959
▁per_B 2960
▁per_I 2961
▁dark_B 2962
▁dark_I 2963
gi_B 2964
gi_I 2965
▁lost_B 2966
▁lost_I 2967
▁calendar_B 2968
▁calendar_I 2969
▁correct_B 2970
▁correct_I 2971
▁save_B 2972
▁save_I 2973
▁Andrew_B 2974
▁Andrew_I 2975
▁Pandora_B 2976
▁Pandora_I 2977
▁So_B 2978
▁So_I 2979
mb_B 2980
mb_I 2981
▁clear_B 2982
▁clear_I 2983
▁Red_B 2984
▁Red_I 2985
▁needed_B 2986
▁needed_I 2987
▁follow_B 2988
▁follow_I 2989
tie_B 2990
tie_I 2991
▁weird_B 2992
▁weird_I 2993
▁Pat_B 2994
▁Pat_I 2995
▁Michigan_B 2996
▁Michigan_I 2997
gra_B 2998
gra_I 2999
▁anyone_B 3000
▁anyone_I 3001
tin_B 3002
tin_I 3003
▁degrees_B 3004
▁degrees_I 3005
j_B 3006
j_I 3007
sco_B 3008
sco_I 3009
▁Cha_B 3010
▁Cha_I 3011
▁Ya_B 3012
▁Ya_I 3013
ea_B 3014
ea_I 3015
▁finish_B 3016
▁finish_I 3017
▁mad_B 3018
▁mad_I 3019
▁works_B 3020
▁works_I 3021
▁breakfast_B 3022
▁breakfast_I 3023
▁cheese_B 3024
▁cheese_I 3025
▁boo_B 3026
▁boo_I 3027
ju_B 3028
ju_I 3029
▁She_B 3030
▁She_I 3031
▁Dar_B 3032
▁Dar_I 3033
▁Ohio_B 3034
▁Ohio_I 3035
▁parents_B 3036
▁parents_I 3037
▁Mister_B 3038
▁Mister_I 3039
que_B 3040
que_I 3041
1_B 3042
1_I 3043
▁French_B 3044
▁French_I 3045
han_B 3046
han_I 3047
nder_B 3048
nder_I 3049
▁Tony_B 3050
▁Tony_I 3051
▁Rob_B 3052
▁Rob_I 3053
▁green_B 3054
▁green_I 3055
▁walking_B 3056
▁walking_I 3057
▁father_B 3058
▁father_I 3059
nu_B 3060
nu_I 3061
▁Minecraft_B 3062
▁Minecraft_I 3063
▁Ru_B 3064
▁Ru_I 3065
▁poop_B 3066
▁poop_I 3067
▁eye_B 3068
▁eye_I 3069
▁Thanksgiving_B 3070
▁Thanksgiving_I 3071
▁ones_B 3072
▁ones_I 3073
ade_B 3074
ade_I 3075
▁cannot_B 3076
▁cannot_I 3077
▁level_B 3078
▁level_I 3079
house_B 3080
house_I 3081
▁hospital_B 3082
▁hospital_I 3083
ph_B 3084
ph_I 3085
▁blood_B 3086
▁blood_I 3087
die_B 3088
die_I 3089
▁ball_B 3090
▁ball_I 3091
ial_B 3092
ial_I 3093
ub_B 3094
ub_I 3095
▁church_B 3096
▁church_I 3097
▁wonderful_B 3098
▁wonderful_I 3099
ot_B 3100
ot_I 3101
ries_B 3102
ries_I 3103
▁Lee_B 3104
▁Lee_I 3105
▁rap_B 3106
▁rap_I 3107
▁fall_B 3108
▁fall_I 3109
tra_B 3110
tra_I 3111
ite_B 3112
ite_I 3113
ud_B 3114
ud_I 3115
▁club_B 3116
▁club_I 3117
▁bank_B 3118
▁bank_I 3119
▁Amy_B 3120
▁Amy_I 3121
ous_B 3122
ous_I 3123
ier_B 3124
ier_I 3125
▁using_B 3126
▁using_I 3127
▁return_B 3128
▁return_I 3129
▁months_B 3130
▁months_I 3131
▁sit_B 3132
▁sit_I 3133
▁intercom_B 3134
▁intercom_I 3135
▁talked_B 3136
▁talked_I 3137
▁dude_B 3138
▁dude_I 3139
▁alone_B 3140
▁alone_I 3141
▁miles_B 3142
▁miles_I 3143
▁Ju_B 3144
▁Ju_I 3145
▁Michelle_B 3146
▁Michelle_I 3147
▁bought_B 3148
▁bought_I 3149
▁easy_B 3150
▁easy_I 3151
▁password_B 3152
▁password_I 3153
ating_B 3154
ating_I 3155
▁gotta_B 3156
▁gotta_I 3157
▁Greg_B 3158
▁Greg_I 3159
▁Washington_B 3160
▁Washington_I 3161
ving_B 3162
ving_I 3163
cr_B 3164
cr_I 3165
▁Bur_B 3166
▁Bur_I 3167
▁Rose_B 3168
▁Rose_I 3169
ure_B 3170
ure_I 3171
▁dollar_B 3172
▁dollar_I 3173
▁telling_B 3174
▁telling_I 3175
hu_B 3176
hu_I 3177
▁totally_B 3178
▁totally_I 3179
row_B 3180
row_I 3181
▁sub_B 3182
▁sub_I 3183
▁Bank_B 3184
▁Bank_I 3185
▁Frank_B 3186
▁Frank_I 3187
gar_B 3188
gar_I 3189
vin_B 3190
vin_I 3191
▁special_B 3192
▁special_I 3193
▁wow_B 3194
▁wow_I 3195
▁dumb_B 3196
▁dumb_I 3197
▁piece_B 3198
▁piece_I 3199
▁possible_B 3200
▁possible_I 3201
our_B 3202
our_I 3203
▁checking_B 3204
▁checking_I 3205
▁Gi_B 3206
▁Gi_I 3207
▁earlier_B 3208
▁earlier_I 3209
▁Jennifer_B 3210
▁Jennifer_I 3211
▁Thomas_B 3212
▁Thomas_I 3213
▁Su_B 3214
▁Su_I 3215
well_B 3216
well_I 3217
▁Jordan_B 3218
▁Jordan_I 3219
2_B 3220
2_I 3221
J_B 3222
J_I 3223
▁Ashley_B 3224
▁Ashley_I 3225
par_B 3226
par_I 3227
▁River_B 3228
▁River_I 3229
town_B 3230
town_I 3231
é_B 3232
é_I 3233
▁behind_B 3234
▁behind_I 3235
▁girlfriend_B 3236
▁girlfriend_I 3237
▁everywhere_B 3238
▁everywhere_I 3239
▁code_B 3240
▁code_I 3241
▁Johnson_B 3242
▁Johnson_I 3243
▁sitting_B 3244
▁sitting_I 3245
▁catch_B 3246
▁catch_I 3247
▁Center_B 3248
▁Center_I 3249
▁raise_B 3250
▁raise_I 3251
▁Hill_B 3252
▁Hill_I 3253
▁Roblox_B 3254
▁Roblox_I 3255
▁hotel_B 3256
▁hotel_I 3257
▁Jones_B 3258
▁Jones_I 3259
▁middle_B 3260
▁middle_I 3261
for_B 3262
for_I 3263
▁Anthony_B 3264
▁Anthony_I 3265
▁Santa_B 3266
▁Santa_I 3267
▁interested_B 3268
▁interested_I 3269
▁dress_B 3270
▁dress_I 3271
▁size_B 3272
▁size_I 3273
▁NFL_B 3274
▁NFL_I 3275
▁computer_B 3276
▁computer_I 3277
ana_B 3278
ana_I 3279
▁connect_B 3280
▁connect_I 3281
▁worth_B 3282
▁worth_I 3283
▁fourth_B 3284
▁fourth_I 3285
▁pop_B 3286
▁pop_I 3287
▁true_B 3288
▁true_I 3289
▁Best_B 3290
▁Best_I 3291
▁camp_B 3292
▁camp_I 3293
▁Jen_B 3294
▁Jen_I 3295
▁paid_B 3296
▁paid_I 3297
▁kill_B 3298
▁kill_I 3299
▁control_B 3300
▁control_I 3301
▁insurance_B 3302
▁insurance_I 3303
▁Cla_B 3304
▁Cla_I 3305
▁Virginia_B 3306
▁Virginia_I 3307
▁market_B 3308
▁market_I 3309
rk_B 3310
rk_I 3311
ita_B 3312
ita_I 3313
▁wall_B 3314
▁wall_I 3315
▁throw_B 3316
▁throw_I 3317
▁flight_B 3318
▁flight_I 3319
▁suck_B 3320
▁suck_I 3321
▁US_B 3322
▁US_I 3323
▁McDonald_B 3324
▁McDonald_I 3325
so_B 3326
so_I 3327
one_B 3328
one_I 3329
▁wear_B 3330
▁wear_I 3331
▁join_B 3332
▁join_I 3333
▁Nor_B 3334
▁Nor_I 3335
▁Wood_B 3336
▁Wood_I 3337
▁Miss_B 3338
▁Miss_I 3339
▁clothes_B 3340
▁clothes_I 3341
sen_B 3342
sen_I 3343
ect_B 3344
ect_I 3345
▁Halloween_B 3346
▁Halloween_I 3347
▁Ge_B 3348
▁Ge_I 3349
old_B 3350
old_I 3351
▁during_B 3352
▁during_I 3353
▁report_B 3354
▁report_I 3355
▁respond_B 3356
▁respond_I 3357
ft_B 3358
ft_I 3359
▁eating_B 3360
▁eating_I 3361
▁quiet_B 3362
▁quiet_I 3363
▁Fox_B 3364
▁Fox_I 3365
▁Hi_B 3366
▁Hi_I 3367
▁hits_B 3368
▁hits_I 3369
▁matter_B 3370
▁matter_I 3371
▁Max_B 3372
▁Max_I 3373
▁wind_B 3374
▁wind_I 3375
ory_B 3376
ory_I 3377
▁Game_B 3378
▁Game_I 3379
out_B 3380
out_I 3381
▁sell_B 3382
▁sell_I 3383
▁Drake_B 3384
▁Drake_I 3385
tal_B 3386
tal_I 3387
▁cover_B 3388
▁cover_I 3389
▁Mad_B 3390
▁Mad_I 3391
▁Sh_B 3392
▁Sh_I 3393
▁kiss_B 3394
▁kiss_I 3395
▁Tyler_B 3396
▁Tyler_I 3397
▁key_B 3398
▁key_I 3399
▁gift_B 3400
▁gift_I 3401
▁mix_B 3402
▁mix_I 3403
▁seeing_B 3404
▁seeing_I 3405
▁Chi_B 3406
▁Chi_I 3407
▁Island_B 3408
▁Island_I 3409
▁cook_B 3410
▁cook_I 3411
▁somewhere_B 3412
▁somewhere_I 3413
▁fat_B 3414
▁fat_I 3415
▁soundtrack_B 3416
▁soundtrack_I 3417
law_B 3418
law_I 3419
▁step_B 3420
▁step_I 3421
▁college_B 3422
▁college_I 3423
▁settings_B 3424
▁settings_I 3425
▁children_B 3426
▁children_I 3427
cent_B 3428
cent_I 3429
▁Bear_B 3430
▁Bear_I 3431
▁building_B 3432
▁building_I 3433
▁instead_B 3434
▁instead_I 3435
▁Christian_B 3436
▁Christian_I 3437
▁Cu_B 3438
▁Cu_I 3439
▁Za_B 3440
▁Za_I 3441
▁write_B 3442
▁write_I 3443
▁nobody_B 3444
▁nobody_I 3445
▁knew_B 3446
▁knew_I 3447
▁rec_B 3448
▁rec_I 3449
▁window_B 3450
▁window_I 3451
qua_B 3452
qua_I 3453
amp_B 3454
amp_I 3455
▁Karen_B 3456
▁Karen_I 3457
▁review_B 3458
▁review_I 3459
ett_B 3460
ett_I 3461
ple_B 3462
ple_I 3463
▁shot_B 3464
▁shot_I 3465
▁parking_B 3466
▁parking_I 3467
▁Julie_B 3468
▁Julie_I 3469
▁Emily_B 3470
▁Emily_I 3471
▁system_B 3472
▁system_I 3473
ice_B 3474
ice_I 3475
▁beat_B 3476
▁beat_I 3477
▁paint_B 3478
▁paint_I 3479
▁inches_B 3480
▁inches_I 3481
X_B 3482
X_I 3483
▁Linda_B 3484
▁Linda_I 3485
▁pool_B 3486
▁pool_I 3487
ture_B 3488
ture_I 3489
▁makes_B 3490
▁makes_I 3491
▁Bay_B 3492
▁Bay_I 3493
▁act_B 3494
▁act_I 3495
ip_B 3496
ip_I 3497
ky_B 3498
ky_I 3499
▁grow_B 3500
▁grow_I 3501
▁questions_B 3502
▁questions_I 3503
▁Son_B 3504
▁Son_I 3505
▁share_B 3506
▁share_I 3507
ible_B 3508
ible_I 3509
▁one_B 3510
▁one_I 3511
ue_B 3512
ue_I 3513
▁sometimes_B 3514
▁sometimes_I 3515
▁Up_B 3516
▁Up_I 3517
▁literally_B 3518
▁literally_I 3519
▁fight_B 3520
▁fight_I 3521
▁Martin_B 3522
▁Martin_I 3523
▁tall_B 3524
▁tall_I 3525
au_B 3526
au_I 3527
▁reach_B 3528
▁reach_I 3529
▁download_B 3530
▁download_I 3531
▁street_B 3532
▁street_I 3533
▁Rick_B 3534
▁Rick_I 3535
▁Ray_B 3536
▁Ray_I 3537
▁Young_B 3538
▁Young_I 3539
▁Anna_B 3540
▁Anna_I 3541
▁missed_B 3542
▁missed_I 3543
ward_B 3544
ward_I 3545
▁customer_B 3546
▁customer_I 3547
▁exactly_B 3548
▁exactly_I 3549
▁gym_B 3550
▁gym_I 3551
tter_B 3552
tter_I 3553
▁son_B 3554
▁son_I 3555
▁Williams_B 3556
▁Williams_I 3557
▁excited_B 3558
▁excited_I 3559
▁Super_B 3560
▁Super_I 3561
zz_B 3562
zz_I 3563
▁Jessica_B 3564
▁Jessica_I 3565
dge_B 3566
dge_I 3567
▁square_B 3568
▁square_I 3569
ino_B 3570
ino_I 3571
ban_B 3572
ban_I 3573
▁library_B 3574
▁library_I 3575
▁July_B 3576
▁July_I 3577
▁absolutely_B 3578
▁absolutely_I 3579
▁anybody_B 3580
▁anybody_I 3581
▁boyfriend_B 3582
▁boyfriend_I 3583
▁meaning_B 3584
▁meaning_I 3585
▁Chicago_B 3586
▁Chicago_I 3587
▁Bell_B 3588
▁Bell_I 3589
▁leg_B 3590
▁leg_I 3591
ex_B 3592
ex_I 3593
▁lady_B 3594
▁lady_I 3595
▁Hall_B 3596
▁Hall_I 3597
▁longer_B 3598
▁longer_I 3599
▁golf_B 3600
▁golf_I 3601
hop_B 3602
hop_I 3603
▁usually_B 3604
▁usually_I 3605
▁damn_B 3606
▁damn_I 3607
▁final_B 3608
▁final_I 3609
▁unlock_B 3610
▁unlock_I 3611
we_B 3612
we_I 3613
uc_B 3614
uc_I 3615
ick_B 3616
ick_I 3617
▁sex_B 3618
▁sex_I 3619
▁Sp_B 3620
▁Sp_I 3621
▁foot_B 3622
▁foot_I 3623
▁log_B 3624
▁log_I 3625
▁edit_B 3626
▁edit_I 3627
▁offer_B 3628
▁offer_I 3629
▁looked_B 3630
▁looked_I 3631
lly_B 3632
lly_I 3633
cor_B 3634
cor_I 3635
ship_B 3636
ship_I 3637
▁starting_B 3638
▁starting_I 3639
vis_B 3640
vis_I 3641
▁Brandon_B 3642
▁Brandon_I 3643
▁Win_B 3644
▁Win_I 3645
▁sale_B 3646
▁sale_I 3647
▁Jersey_B 3648
▁Jersey_I 3649
▁August_B 3650
▁August_I 3651
▁stick_B 3652
▁stick_I 3653
ence_B 3654
ence_I 3655
ssa_B 3656
ssa_I 3657
and_B 3658
and_I 3659
▁plans_B 3660
▁plans_I 3661
▁letter_B 3662
▁letter_I 3663
▁desk_B 3664
▁desk_I 3665
▁travel_B 3666
▁travel_I 3667
▁flip_B 3668
▁flip_I 3669
▁meant_B 3670
▁meant_I 3671
▁aunt_B 3672
▁aunt_I 3673
▁Wal_B 3674
▁Wal_I 3675
▁ring_B 3676
▁ring_I 3677
▁moving_B 3678
▁moving_I 3679
▁create_B 3680
▁create_I 3681
▁boss_B 3682
▁boss_I 3683
gie_B 3684
gie_I 3685
▁oil_B 3686
▁oil_I 3687
▁Katie_B 3688
▁Katie_I 3689
▁Babe_B 3690
▁Babe_I 3691
▁Saint_B 3692
▁Saint_I 3693
▁inter_B 3694
▁inter_I 3695
▁slow_B 3696
▁slow_I 3697
▁Angel_B 3698
▁Angel_I 3699
▁Han_B 3700
▁Han_I 3701
▁Laura_B 3702
▁Laura_I 3703
▁fifth_B 3704
▁fifth_I 3705
▁Mari_B 3706
▁Mari_I 3707
▁Richard_B 3708
▁Richard_I 3709
jo_B 3710
jo_I 3711
▁machine_B 3712
▁machine_I 3713
▁Ram_B 3714
▁Ram_I 3715
▁practice_B 3716
▁practice_I 3717
▁spend_B 3718
▁spend_I 3719
pic_B 3720
pic_I 3721
▁hubby_B 3722
▁hubby_I 3723
▁tire_B 3724
▁tire_I 3725
▁straight_B 3726
▁straight_I 3727
▁Thrones_B 3728
▁Thrones_I 3729
▁women_B 3730
▁women_I 3731
▁Jon_B 3732
▁Jon_I 3733
▁Mor_B 3734
▁Mor_I 3735
▁moment_B 3736
▁moment_I 3737
▁Ali_B 3738
▁Ali_I 3739
▁Chinese_B 3740
▁Chinese_I 3741
▁Si_B 3742
▁Si_I 3743
▁block_B 3744
▁block_I 3745
▁expect_B 3746
▁expect_I 3747
van_B 3748
van_I 3749
ign_B 3750
ign_I 3751
har_B 3752
har_I 3753
▁cup_B 3754
▁cup_I 3755
▁lose_B 3756
▁lose_I 3757
lor_B 3758
lor_I 3759
▁wonder_B 3760
▁wonder_I 3761
▁goodbye_B 3762
▁goodbye_I 3763
▁screenshot_B 3764
▁screenshot_I 3765
win_B 3766
win_I 3767
▁Charlie_B 3768
▁Charlie_I 3769
qu_B 3770
qu_I 3771
▁April_B 3772
▁April_I 3773
head_B 3774
head_I 3775
▁Jake_B 3776
▁Jake_I 3777
▁summer_B 3778
▁summer_I 3779
▁Pu_B 3780
▁Pu_I 3781
▁web_B 3782
▁web_I 3783
key_B 3784
key_I 3785
con_B 3786
con_I 3787
▁Carl_B 3788
▁Carl_I 3789
▁seems_B 3790
▁seems_I 3791
▁Je_B 3792
▁Je_I 3793
▁Maria_B 3794
▁Maria_I 3795
▁Van_B 3796
▁Van_I 3797
▁pounds_B 3798
▁pounds_I 3799
▁camera_B 3800
▁camera_I 3801
▁Her_B 3802
▁Her_I 3803
▁Pizza_B 3804
▁Pizza_I 3805
▁Ad_B 3806
▁Ad_I 3807
▁support_B 3808
▁support_I 3809
▁Kar_B 3810
▁Kar_I 3811
▁X_B 3812
▁X_I 3813
▁Bluetooth_B 3814
▁Bluetooth_I 3815
board_B 3816
board_I 3817
lie_B 3818
lie_I 3819
rie_B 3820
rie_I 3821
▁hell_B 3822
▁hell_I 3823
fo_B 3824
fo_I 3825
Q_B 3826
Q_I 3827
▁da_B 3828
▁da_I 3829
gen_B 3830
gen_I 3831
▁Kyle_B 3832
▁Kyle_I 3833
zi_B 3834
zi_I 3835
▁finally_B 3836
▁finally_I 3837
▁latest_B 3838
▁latest_I 3839
ker_B 3840
ker_I 3841
▁Internet_B 3842
▁Internet_I 3843
▁event_B 3844
▁event_I 3845
▁online_B 3846
▁online_I 3847
▁jump_B 3848
▁jump_I 3849
▁personal_B 3850
▁personal_I 3851
uff_B 3852
uff_I 3853
▁electric_B 3854
▁electric_I 3855
▁Peter_B 3856
▁Peter_I 3857
▁cake_B 3858
▁cake_I 3859
▁Lauren_B 3860
▁Lauren_I 3861
▁Matthew_B 3862
▁Matthew_I 3863
▁Bi_B 3864
▁Bi_I 3865
▁restart_B 3866
▁restart_I 3867
let_B 3868
let_I 3869
▁laugh_B 3870
▁laugh_I 3871
ena_B 3872
ena_I 3873
▁Mer_B 3874
▁Mer_I 3875
▁Starbucks_B 3876
▁Starbucks_I 3877
ath_B 3878
ath_I 3879
▁mess_B 3880
▁mess_I 3881
dia_B 3882
dia_I 3883
▁Ash_B 3884
▁Ash_I 3885
her_B 3886
her_I 3887
▁Cam_B 3888
▁Cam_I 3889
▁Austin_B 3890
▁Austin_I 3891
▁ounces_B 3892
▁ounces_I 3893
ball_B 3894
ball_I 3895
▁luck_B 3896
▁luck_I 3897
bra_B 3898
bra_I 3899
▁warm_B 3900
▁warm_I 3901
▁neighbor_B 3902
▁neighbor_I 3903
▁fair_B 3904
▁fair_I 3905
▁Home_B 3906
▁Home_I 3907
▁target_B 3908
▁target_I 3909
▁raining_B 3910
▁raining_I 3911
ew_B 3912
ew_I 3913
ag_B 3914
ag_I 3915
▁hoping_B 3916
▁hoping_I 3917
▁page_B 3918
▁page_I 3919
▁whenever_B 3920
▁whenever_I 3921
▁Miller_B 3922
▁Miller_I 3923
▁Amanda_B 3924
▁Amanda_I 3925
▁stock_B 3926
▁stock_I 3927
▁cash_B 3928
▁cash_I 3929
▁scene_B 3930
▁scene_I 3931
▁arm_B 3932
▁arm_I 3933
▁means_B 3934
▁means_I 3935
▁Ron_B 3936
▁Ron_I 3937
▁eyes_B 3938
▁eyes_I 3939
▁rent_B 3940
▁rent_I 3941
▁giving_B 3942
▁giving_I 3943
▁Louis_B 3944
▁Louis_I 3945
▁horse_B 3946
▁horse_I 3947
▁Gar_B 3948
▁Gar_I 3949
▁mama_B 3950
▁mama_I 3951
▁chat_B 3952
▁chat_I 3953
ric_B 3954
ric_I 3955
▁band_B 3956
▁band_I 3957
▁Dragon_B 3958
▁Dragon_I 3959
▁United_B 3960
▁United_I 3961
▁Del_B 3962
▁Del_I 3963
▁Gra_B 3964
▁Gra_I 3965
▁Jimmy_B 3966
▁Jimmy_I 3967
▁ear_B 3968
▁ear_I 3969
lla_B 3970
lla_I 3971
ther_B 3972
ther_I 3973
▁finished_B 3974
▁finished_I 3975
▁County_B 3976
▁County_I 3977
nda_B 3978
nda_I 3979
▁baseball_B 3980
▁baseball_I 3981
over_B 3982
over_I 3983
▁beginning_B 3984
▁beginning_I 3985
▁picking_B 3986
▁picking_I 3987
▁Yo_B 3988
▁Yo_I 3989
▁greatest_B 3990
▁greatest_I 3991
▁Rock_B 3992
▁Rock_I 3993
▁Rachel_B 3994
▁Rachel_I 3995
▁Sal_B 3996
▁Sal_I 3997
▁double_B 3998
▁double_I 3999
▁milk_B 4000
▁milk_I 4001
▁Bri_B 4002
▁Bri_I 4003
▁words_B 4004
▁words_I 4005
▁Costco_B 4006
▁Costco_I 4007
▁putting_B 4008
▁putting_I 4009
▁planning_B 4010
▁planning_I 4011
▁Jacob_B 4012
▁Jacob_I 4013
cher_B 4014
cher_I 4015
▁print_B 4016
▁print_I 4017
▁apartment_B 4018
▁apartment_I 4019
▁land_B 4020
▁land_I 4021
▁Tennessee_B 4022
▁Tennessee_I 4023
▁born_B 4024
▁born_I 4025
▁main_B 4026
▁main_I 4027
▁uncle_B 4028
▁uncle_I 4029
ise_B 4030
ise_I 4031
▁Music_B 4032
▁Music_I 4033
▁important_B 4034
▁important_I 4035
▁discuss_B 4036
▁discuss_I 4037
▁route_B 4038
▁route_I 4039
▁serious_B 4040
▁serious_I 4041
▁bra_B 4042
▁bra_I 4043
▁wild_B 4044
▁wild_I 4045
▁spot_B 4046
▁spot_I 4047
▁agree_B 4048
▁agree_I 4049
▁confirm_B 4050
▁confirm_I 4051
▁sense_B 4052
▁sense_I 4053
▁Charles_B 4054
▁Charles_I 4055
▁sun_B 4056
▁sun_I 4057
▁feed_B 4058
▁feed_I 4059
ob_B 4060
ob_I 4061
▁avengers_B 4062
▁avengers_I 4063
▁prime_B 4064
▁prime_I 4065
back_B 4066
back_I 4067
▁Nicole_B 4068
▁Nicole_I 4069
▁shirt_B 4070
▁shirt_I 4071
▁colors_B 4072
▁colors_I 4073
▁Aaron_B 4074
▁Aaron_I 4075
dic_B 4076
dic_I 4077
▁count_B 4078
▁count_I 4079
▁downstairs_B 4080
▁downstairs_I 4081
▁Way_B 4082
▁Way_I 4083
▁wifey_B 4084
▁wifey_I 4085
▁noon_B 4086
▁noon_I 4087
▁December_B 4088
▁December_I 4089
tur_B 4090
tur_I 4091
lar_B 4092
lar_I 4093
▁Hol_B 4094
▁Hol_I 4095
▁heat_B 4096
▁heat_I 4097
lyn_B 4098
lyn_I 4099
▁period_B 4100
▁period_I 4101
▁animal_B 4102
▁animal_I 4103
▁client_B 4104
▁client_I 4105
▁shoes_B 4106
▁shoes_I 4107
▁Melissa_B 4108
▁Melissa_I 4109
yn_B 4110
yn_I 4111
ix_B 4112
ix_I 4113
zo_B 4114
zo_I 4115
▁June_B 4116
▁June_I 4117
▁map_B 4118
▁map_I 4119
cal_B 4120
cal_I 4121
nce_B 4122
nce_I 4123
▁Alabama_B 4124
▁Alabama_I 4125
▁Hulu_B 4126
▁Hulu_I 4127
▁Sean_B 4128
▁Sean_I 4129
▁buddy_B 4130
▁buddy_I 4131
lia_B 4132
lia_I 4133
▁future_B 4134
▁future_I 4135
▁AC_B 4136
▁AC_I 4137
▁learn_B 4138
▁learn_I 4139
▁unless_B 4140
▁unless_I 4141
ide_B 4142
ide_I 4143
▁self_B 4144
▁self_I 4145
▁Johnny_B 4146
▁Johnny_I 4147
▁fact_B 4148
▁fact_I 4149
cur_B 4150
cur_I 4151
▁along_B 4152
▁along_I 4153
▁comes_B 4154
▁comes_I 4155
ji_B 4156
ji_I 4157
▁sleeping_B 4158
▁sleeping_I 4159
▁present_B 4160
▁present_I 4161
▁Ann_B 4162
▁Ann_I 4163
ria_B 4164
ria_I 4165
▁trans_B 4166
▁trans_I 4167
▁single_B 4168
▁single_I 4169
▁conversation_B 4170
▁conversation_I 4171
ddle_B 4172
ddle_I 4173
▁gun_B 4174
▁gun_I 4175
▁draw_B 4176
▁draw_I 4177
▁laundry_B 4178
▁laundry_I 4179
▁Jesus_B 4180
▁Jesus_I 4181
▁Cole_B 4182
▁Cole_I 4183
▁Store_B 4184
▁Store_I 4185
▁Harry_B 4186
▁Harry_I 4187
▁wheel_B 4188
▁wheel_I 4189
pu_B 4190
pu_I 4191
0_B 4192
0_I 4193
▁letting_B 4194
▁letting_I 4195
▁Can_B 4196
▁Can_I 4197
▁ran_B 4198
▁ran_I 4199
▁WhatsApp_B 4200
▁WhatsApp_I 4201
ome_B 4202
ome_I 4203
▁Gary_B 4204
▁Gary_I 4205
▁due_B 4206
▁due_I 4207
▁race_B 4208
▁race_I 4209
ai_B 4210
ai_I 4211
▁boat_B 4212
▁boat_I 4213
▁bottle_B 4214
▁bottle_I 4215
▁Andy_B 4216
▁Andy_I 4217
▁trust_B 4218
▁trust_I 4219
itt_B 4220
itt_I 4221
▁closed_B 4222
▁closed_I 4223
kins_B 4224
kins_I 4225
▁spa_B 4226
▁spa_I 4227
cle_B 4228
cle_I 4229
▁sometime_B 4230
▁sometime_I 4231
▁Va_B 4232
▁Va_I 4233
▁difference_B 4234
▁difference_I 4235
▁Brad_B 4236
▁Brad_I 4237
net_B 4238
net_I 4239
lee_B 4240
lee_I 4241
▁ref_B 4242
▁ref_I 4243
ration_B 4244
ration_I 4245
▁website_B 4246
▁website_I 4247
▁Evan_B 4248
▁Evan_I 4249
▁sings_B 4250
▁sings_I 4251
pin_B 4252
pin_I 4253
▁young_B 4254
▁young_I 4255
▁pink_B 4256
▁pink_I 4257
▁spoke_B 4258
▁spoke_I 4259
▁large_B 4260
▁large_I 4261
▁install_B 4262
▁install_I 4263
▁dick_B 4264
▁dick_I 4265
▁Bea_B 4266
▁Bea_I 4267
▁Mon_B 4268
▁Mon_I 4269
▁Junior_B 4270
▁Junior_I 4271
▁Papa_B 4272
▁Papa_I 4273
▁less_B 4274
▁less_I 4275
▁Cal_B 4276
▁Cal_I 4277
▁Illinois_B 4278
▁Illinois_I 4279
ong_B 4280
ong_I 4281
▁Song_B 4282
▁Song_I 4283
▁product_B 4284
▁product_I 4285
▁normal_B 4286
▁normal_I 4287
shi_B 4288
shi_I 4289
ps_B 4290
ps_I 4291
▁fish_B 4292
▁fish_I 4293
▁picked_B 4294
▁picked_I 4295
▁tickets_B 4296
▁tickets_I 4297
▁mini_B 4298
▁mini_I 4299
▁except_B 4300
▁except_I 4301
▁center_B 4302
▁center_I 4303
▁eighth_B 4304
▁eighth_I 4305
▁War_B 4306
▁War_I 4307
und_B 4308
und_I 4309
▁cleaning_B 4310
▁cleaning_I 4311
▁Ty_B 4312
▁Ty_I 4313
▁secret_B 4314
▁secret_I 4315
▁Susan_B 4316
▁Susan_I 4317
▁Momma_B 4318
▁Momma_I 4319
▁driver_B 4320
▁driver_I 4321
▁explain_B 4322
▁explain_I 4323
▁child_B 4324
▁child_I 4325
▁yo_B 4326
▁yo_I 4327
▁In_B 4328
▁In_I 4329
ress_B 4330
ress_I 4331
▁however_B 4332
▁however_I 4333
▁Or_B 4334
▁Or_I 4335
fer_B 4336
fer_I 4337
▁Boy_B 4338
▁Boy_I 4339
ington_B 4340
ington_I 4341
▁staying_B 4342
▁staying_I 4343
▁Sun_B 4344
▁Sun_I 4345
▁fill_B 4346
▁fill_I 4347
▁photos_B 4348
▁photos_I 4349
▁monster_B 4350
▁monster_I 4351
▁Z_B 4352
▁Z_I 4353
▁March_B 4354
▁March_I 4355
▁Megan_B 4356
▁Megan_I 4357
▁Pokémon_B 4358
▁Pokémon_I 4359
▁Mel_B 4360
▁Mel_I 4361
cker_B 4362
cker_I 4363
rel_B 4364
rel_I 4365
▁Nancy_B 4366
▁Nancy_I 4367
kin_B 4368
kin_I 4369
▁smoke_B 4370
▁smoke_I 4371
gle_B 4372
gle_I 4373
▁beatbox_B 4374
▁beatbox_I 4375
if_B 4376
if_I 4377
ek_B 4378
ek_I 4379
▁ya_B 4380
▁ya_I 4381
▁fly_B 4382
▁fly_I 4383
ec_B 4384
ec_I 4385
▁isn_B 4386
▁isn_I 4387
ray_B 4388
ray_I 4389
use_B 4390
use_I 4391
▁airport_B 4392
▁airport_I 4393
▁Pro_B 4394
▁Pro_I 4395
▁Tu_B 4396
▁Tu_I 4397
▁para_B 4398
▁para_I 4399
▁cousin_B 4400
▁cousin_I 4401
▁Luke_B 4402
▁Luke_I 4403
▁request_B 4404
▁request_I 4405
rate_B 4406
rate_I 4407
▁yard_B 4408
▁yard_I 4409
▁Danny_B 4410
▁Danny_I 4411
▁Colorado_B 4412
▁Colorado_I 4413
ack_B 4414
ack_I 4415
▁January_B 4416
▁January_I 4417
▁Per_B 4418
▁Per_I 4419
▁fit_B 4420
▁fit_I 4421
bird_B 4422
bird_I 4423
vy_B 4424
vy_I 4425
▁grand_B 4426
▁grand_I 4427
▁Depot_B 4428
▁Depot_I 4429
▁random_B 4430
▁random_I 4431
▁Steven_B 4432
▁Steven_I 4433
▁rather_B 4434
▁rather_I 4435
▁basement_B 4436
▁basement_I 4437
▁chocolate_B 4438
▁chocolate_I 4439
▁wedding_B 4440
▁wedding_I 4441
▁bike_B 4442
▁bike_I 4443
ative_B 4444
ative_I 4445
ock_B 4446
ock_I 4447
▁bread_B 4448
▁bread_I 4449
▁push_B 4450
▁push_I 4451
▁Min_B 4452
▁Min_I 4453
▁recipe_B 4454
▁recipe_I 4455
▁pot_B 4456
▁pot_I 4457
ize_B 4458
ize_I 4459
▁quality_B 4460
▁quality_I 4461
mor_B 4462
mor_I 4463
elle_B 4464
elle_I 4465
▁Lane_B 4466
▁Lane_I 4467
▁Jerry_B 4468
▁Jerry_I 4469
▁Stephanie_B 4470
▁Stephanie_I 4471
berg_B 4472
berg_I 4473
▁scary_B 4474
▁scary_I 4475
▁Liz_B 4476
▁Liz_I 4477
wo_B 4478
wo_I 4479
▁vacation_B 4480
▁vacation_I 4481
▁Rich_B 4482
▁Rich_I 4483
▁Patrick_B 4484
▁Patrick_I 4485
▁bunch_B 4486
▁bunch_I 4487
▁anytime_B 4488
▁anytime_I 4489
▁unit_B 4490
▁unit_I 4491
▁Arizona_B 4492
▁Arizona_I 4493
▁complete_B 4494
▁complete_I 4495
▁court_B 4496
▁court_I 4497
ye_B 4498
ye_I 4499
▁sending_B 4500
▁sending_I 4501
▁Heather_B 4502
▁Heather_I 4503
▁Bla_B 4504
▁Bla_I 4505
▁Jose_B 4506
▁Jose_I 4507
▁Ste_B 4508
▁Ste_I 4509
▁coin_B 4510
▁coin_I 4511
▁tea_B 4512
▁tea_I 4513
dale_B 4514
dale_I 4515
▁Stephen_B 4516
▁Stephen_I 4517
ical_B 4518
ical_I 4519
▁relationship_B 4520
▁relationship_I 4521
▁surgery_B 4522
▁surgery_I 4523
▁situation_B 4524
▁situation_I 4525
▁My_B 4526
▁My_I 4527
▁Bre_B 4528
▁Bre_I 4529
▁teacher_B 4530
▁teacher_I 4531
▁lie_B 4532
▁lie_I 4533
▁kick_B 4534
▁kick_I 4535
▁especially_B 4536
▁especially_I 4537
▁Fe_B 4538
▁Fe_I 4539
4_B 4540
4_I 4541
▁seat_B 4542
▁seat_I 4543
burg_B 4544
burg_I 4545
▁imp_B 4546
▁imp_I 4547
▁load_B 4548
▁load_I 4549
▁health_B 4550
▁health_I 4551
stra_B 4552
stra_I 4553
▁figured_B 4554
▁figured_I 4555
iti_B 4556
iti_I 4557
▁sis_B 4558
▁sis_I 4559
ute_B 4560
ute_I 4561
▁Emma_B 4562
▁Emma_I 4563
▁beach_B 4564
▁beach_I 4565
can_B 4566
can_I 4567
▁University_B 4568
▁University_I 4569
▁Kathy_B 4570
▁Kathy_I 4571
▁November_B 4572
▁November_I 4573
▁Swift_B 4574
▁Swift_I 4575
▁tax_B 4576
▁tax_I 4577
▁consider_B 4578
▁consider_I 4579
low_B 4580
low_I 4581
ging_B 4582
ging_I 4583
▁Mario_B 4584
▁Mario_I 4585
▁holiday_B 4586
▁holiday_I 4587
▁Sara_B 4588
▁Sara_I 4589
▁Am_B 4590
▁Am_I 4591
bri_B 4592
bri_I 4593
▁happens_B 4594
▁happens_I 4595
▁board_B 4596
▁board_I 4597
▁completely_B 4598
▁completely_I 4599
▁Jan_B 4600
▁Jan_I 4601
▁As_B 4602
▁As_I 4603
▁Tra_B 4604
▁Tra_I 4605
▁wine_B 4606
▁wine_I 4607
more_B 4608
more_I 4609
▁Wayne_B 4610
▁Wayne_I 4611
▁ski_B 4612
▁ski_I 4613
▁realize_B 4614
▁realize_I 4615
ump_B 4616
ump_I 4617
▁App_B 4618
▁App_I 4619
▁ugly_B 4620
▁ugly_I 4621
don_B 4622
don_I 4623
▁trouble_B 4624
▁trouble_I 4625
▁Davis_B 4626
▁Davis_I 4627
ang_B 4628
ang_I 4629
▁Jean_B 4630
▁Jean_I 4631
▁shoot_B 4632
▁shoot_I 4633
▁Bryan_B 4634
▁Bryan_I 4635
▁standing_B 4636
▁standing_I 4637
▁Par_B 4638
▁Par_I 4639
ious_B 4640
ious_I 4641
▁fr_B 4642
▁fr_I 4643
stone_B 4644
stone_I 4645
▁Morgan_B 4646
▁Morgan_I 4647
▁build_B 4648
▁build_I 4649
▁relax_B 4650
▁relax_I 4651
▁texting_B 4652
▁texting_I 4653
nic_B 4654
nic_I 4655
▁smart_B 4656
▁smart_I 4657
▁payment_B 4658
▁payment_I 4659
▁cheap_B 4660
▁cheap_I 4661
sville_B 4662
sville_I 4663
▁taken_B 4664
▁taken_I 4665
ens_B 4666
ens_I 4667
ox_B 4668
ox_I 4669
▁butt_B 4670
▁butt_I 4671
▁bother_B 4672
▁bother_I 4673
ook_B 4674
ook_I 4675
▁quite_B 4676
▁quite_I 4677
▁Phil_B 4678
▁Phil_I 4679
ston_B 4680
ston_I 4681
▁Long_B 4682
▁Long_I 4683
▁places_B 4684
▁places_I 4685
Z_B 4686
Z_I 4687
▁upstairs_B 4688
▁upstairs_I 4689
▁medicine_B 4690
▁medicine_I 4691
▁interview_B 4692
▁interview_I 4693
▁NPR_B 4694
▁NPR_I 4695
▁bedtime_B 4696
▁bedtime_I 4697
▁Kate_B 4698
▁Kate_I 4699
▁chair_B 4700
▁chair_I 4701
ual_B 4702
ual_I 4703
▁honestly_B 4704
▁honestly_I 4705
▁challenge_B 4706
▁challenge_I 4707
▁broke_B 4708
▁broke_I 4709
▁stress_B 4710
▁stress_I 4711
▁Billy_B 4712
▁Billy_I 4713
len_B 4714
len_I 4715
az_B 4716
az_I 4717
▁voicemail_B 4718
▁voicemail_I 4719
▁September_B 4720
▁September_I 4721
▁dim_B 4722
▁dim_I 4723
▁Sister_B 4724
▁Sister_I 4725
▁option_B 4726
▁option_I 4727
▁Debbie_B 4728
▁Debbie_I 4729
▁seem_B 4730
▁seem_I 4731
▁Indiana_B 4732
▁Indiana_I 4733
▁received_B 4734
▁received_I 4735
▁mail_B 4736
▁mail_I 4737
▁pee_B 4738
▁pee_I 4739
gue_B 4740
gue_I 4741
▁Grace_B 4742
▁Grace_I 4743
▁cap_B 4744
▁cap_I 4745
▁translate_B 4746
▁translate_I 4747
▁cross_B 4748
▁cross_I 4749
▁Ariana_B 4750
▁Ariana_I 4751
▁Fort_B 4752
▁Fort_I 4753
lic_B 4754
lic_I 4755
▁national_B 4756
▁national_I 4757
su_B 4758
su_I 4759
the_B 4760
the_I 4761
▁Eli_B 4762
▁Eli_I 4763
▁treat_B 4764
▁treat_I 4765
▁art_B 4766
▁art_I 4767
▁Larry_B 4768
▁Larry_I 4769
▁soccer_B 4770
▁soccer_I 4771
ities_B 4772
ities_I 4773
je_B 4774
je_I 4775
▁plant_B 4776
▁plant_I 4777
▁Shawn_B 4778
▁Shawn_I 4779
▁process_B 4780
▁process_I 4781
▁president_B 4782
▁president_I 4783
▁police_B 4784
▁police_I 4785
ral_B 4786
ral_I 4787
bin_B 4788
bin_I 4789
▁Elizabeth_B 4790
▁Elizabeth_I 4791
▁dream_B 4792
▁dream_I 4793
▁hungry_B 4794
▁hungry_I 4795
▁mark_B 4796
▁mark_I 4797
▁Roger_B 4798
▁Roger_I 4799
5_B 4800
5_I 4801
▁hip_B 4802
▁hip_I 4803
▁dear_B 4804
▁dear_I 4805
▁blow_B 4806
▁blow_I 4807
py_B 4808
py_I 4809
▁brought_B 4810
▁brought_I 4811
room_B 4812
room_I 4813
off_B 4814
off_I 4815
▁photo_B 4816
▁photo_I 4817
▁sky_B 4818
▁sky_I 4819
dra_B 4820
dra_I 4821
▁Fre_B 4822
▁Fre_I 4823
▁Trump_B 4824
▁Trump_I 4825
▁Easter_B 4826
▁Easter_I 4827
▁Val_B 4828
▁Val_I 4829
▁frozen_B 4830
▁frozen_I 4831
▁original_B 4832
▁original_I 4833
▁capital_B 4834
▁capital_I 4835
▁theater_B 4836
▁theater_I 4837
▁Jamie_B 4838
▁Jamie_I 4839
▁bowl_B 4840
▁bowl_I 4841
▁training_B 4842
▁training_I 4843
cing_B 4844
cing_I 4845
ug_B 4846
ug_I 4847
▁worked_B 4848
▁worked_I 4849
▁sunset_B 4850
▁sunset_I 4851
▁Ver_B 4852
▁Ver_I 4853
▁dry_B 4854
▁dry_I 4855
▁Post_B 4856
▁Post_I 4857
▁Travis_B 4858
▁Travis_I 4859
▁cars_B 4860
▁cars_I 4861
bby_B 4862
bby_I 4863
▁burn_B 4864
▁burn_I 4865
▁married_B 4866
▁married_I 4867
▁project_B 4868
▁project_I 4869
▁skin_B 4870
▁skin_I 4871
▁Valley_B 4872
▁Valley_I 4873
▁program_B 4874
▁program_I 4875
▁Instagram_B 4876
▁Instagram_I 4877
emp_B 4878
emp_I 4879
▁death_B 4880
▁death_I 4881
▁remove_B 4882
▁remove_I 4883
▁series_B 4884
▁series_I 4885
▁fu_B 4886
▁fu_I 4887
▁Ch_B 4888
▁Ch_I 4889
▁corner_B 4890
▁corner_I 4891
cus_B 4892
cus_I 4893
lea_B 4894
lea_I 4895
▁Pennsylvania_B 4896
▁Pennsylvania_I 4897
▁ad_B 4898
▁ad_I 4899
▁Tri_B 4900
▁Tri_I 4901
▁Carol_B 4902
▁Carol_I 4903
▁nap_B 4904
▁nap_I 4905
ane_B 4906
ane_I 4907
▁ICE_B 4908
▁ICE_I 4909
ile_B 4910
ile_I 4911
aw_B 4912
aw_I 4913
oc_B 4914
oc_I 4915
▁restaurants_B 4916
▁restaurants_I 4917
▁listening_B 4918
▁listening_I 4919
▁pressure_B 4920
▁pressure_I 4921
fil_B 4922
fil_I 4923
▁bringing_B 4924
▁bringing_I 4925
▁Dallas_B 4926
▁Dallas_I 4927
▁Potter_B 4928
▁Potter_I 4929
▁Hope_B 4930
▁Hope_I 4931
▁Hannah_B 4932
▁Hannah_I 4933
▁Mil_B 4934
▁Mil_I 4935
▁promise_B 4936
▁promise_I 4937
▁Jane_B 4938
▁Jane_I 4939
ella_B 4940
ella_I 4941
▁butter_B 4942
▁butter_I 4943
▁issue_B 4944
▁issue_I 4945
▁finger_B 4946
▁finger_I 4947
▁wood_B 4948
▁wood_I 4949
▁decided_B 4950
▁decided_I 4951
▁yellow_B 4952
▁yellow_I 4953
▁human_B 4954
▁human_I 4955
▁copy_B 4956
▁copy_I 4957
▁Sta_B 4958
▁Sta_I 4959
▁age_B 4960
▁age_I 4961
▁Beth_B 4962
▁Beth_I 4963
▁worries_B 4964
▁worries_I 4965
▁license_B 4966
▁license_I 4967
▁contract_B 4968
▁contract_I 4969
▁blah_B 4970
▁blah_I 4971
led_B 4972
led_I 4973
▁study_B 4974
▁study_I 4975
▁hallway_B 4976
▁hallway_I 4977
▁Wendy_B 4978
▁Wendy_I 4979
▁weight_B 4980
▁weight_I 4981
▁pants_B 4982
▁pants_I 4983
▁direct_B 4984
▁direct_I 4985
▁Donna_B 4986
▁Donna_I 4987
▁regular_B 4988
▁regular_I 4989
▁rep_B 4990
▁rep_I 4991
▁salad_B 4992
▁salad_I 4993
▁against_B 4994
▁against_I 4995
▁glass_B 4996
▁glass_I 4997
ctor_B 4998
ctor_I 4999
▁Keith_B 5000
▁Keith_I 5001
rick_B 5002
rick_I 5003
anna_B 5004
anna_I 5005
▁died_B 5006
▁died_I 5007
▁god_B 5008
▁god_I 5009
▁cats_B 5010
▁cats_I 5011
▁pie_B 5012
▁pie_I 5013
pen_B 5014
pen_I 5015
▁felt_B 5016
▁felt_I 5017
▁sexy_B 5018
▁sexy_I 5019
▁lots_B 5020
▁lots_I 5021
▁Kris_B 5022
▁Kris_I 5023
eg_B 5024
eg_I 5025
▁Zach_B 5026
▁Zach_I 5027
▁Doug_B 5028
▁Doug_I 5029
▁deep_B 5030
▁deep_I 5031
▁changed_B 5032
▁changed_I 5033
▁stuck_B 5034
▁stuck_I 5035
▁loud_B 5036
▁loud_I 5037
▁workout_B 5038
▁workout_I 5039
▁Mill_B 5040
▁Mill_I 5041
ale_B 5042
ale_I 5043
▁beer_B 5044
▁beer_I 5045
▁orange_B 5046
▁orange_I 5047
▁heads_B 5048
▁heads_I 5049
▁prayer_B 5050
▁prayer_I 5051
▁pen_B 5052
▁pen_I 5053
▁Em_B 5054
▁Em_I 5055
▁caption_B 5056
▁caption_I 5057
▁upset_B 5058
▁upset_I 5059
▁asleep_B 5060
▁asleep_I 5061
▁porch_B 5062
▁porch_I 5063
▁Kel_B 5064
▁Kel_I 5065
▁Wo_B 5066
▁Wo_I 5067
▁Cindy_B 5068
▁Cindy_I 5069
▁Mall_B 5070
▁Mall_I 5071
▁em_B 5072
▁em_I 5073
day_B 5074
day_I 5075
mont_B 5076
mont_I 5077
▁Wil_B 5078
▁Wil_I 5079
▁base_B 5080
▁base_I 5081
▁property_B 5082
▁property_I 5083
▁Stone_B 5084
▁Stone_I 5085
▁sweetie_B 5086
▁sweetie_I 5087
▁ceiling_B 5088
▁ceiling_I 5089
▁history_B 5090
▁history_I 5091
▁Jackie_B 5092
▁Jackie_I 5093
ski_B 5094
ski_I 5095
▁Bridge_B 5096
▁Bridge_I 5097
▁Lady_B 5098
▁Lady_I 5099
ica_B 5100
ica_I 5101
▁Marc_B 5102
▁Marc_I 5103
▁Bobby_B 5104
▁Bobby_I 5105
▁Boulevard_B 5106
▁Boulevard_I 5107
▁Fer_B 5108
▁Fer_I 5109
▁strong_B 5110
▁strong_I 5111
▁gold_B 5112
▁gold_I 5113
▁file_B 5114
▁file_I 5115
mmy_B 5116
mmy_I 5117
▁Ford_B 5118
▁Ford_I 5119
▁Randy_B 5120
▁Randy_I 5121
blo_B 5122
blo_I 5123
▁cop_B 5124
▁cop_I 5125
▁Pam_B 5126
▁Pam_I 5127
▁reading_B 5128
▁reading_I 5129
▁navigation_B 5130
▁navigation_I 5131
lon_B 5132
lon_I 5133
▁German_B 5134
▁German_I 5135
▁dropped_B 5136
▁dropped_I 5137
▁Minnesota_B 5138
▁Minnesota_I 5139
▁Kentucky_B 5140
▁Kentucky_I 5141
▁images_B 5142
▁images_I 5143
▁issues_B 5144
▁issues_I 5145
men_B 5146
men_I 5147
▁Pol_B 5148
▁Pol_I 5149
▁Port_B 5150
▁Port_I 5151
lip_B 5152
lip_I 5153
▁Mickey_B 5154
▁Mickey_I 5155
▁posted_B 5156
▁posted_I 5157
▁root_B 5158
▁root_I 5159
nge_B 5160
nge_I 5161
▁previous_B 5162
▁previous_I 5163
▁Creek_B 5164
▁Creek_I 5165
▁Alan_B 5166
▁Alan_I 5167
cia_B 5168
cia_I 5169
▁decision_B 5170
▁decision_I 5171
▁Ocean_B 5172
▁Ocean_I 5173
▁trash_B 5174
▁trash_I 5175
ik_B 5176
ik_I 5177
▁Houston_B 5178
▁Houston_I 5179
ou_B 5180
ou_I 5181
▁repair_B 5182
▁repair_I 5183
▁Mexico_B 5184
▁Mexico_I 5185
▁speed_B 5186
▁speed_I 5187
▁bath_B 5188
▁bath_I 5189
pper_B 5190
pper_I 5191
▁bottom_B 5192
▁bottom_I 5193
▁Robin_B 5194
▁Robin_I 5195
▁Fred_B 5196
▁Fred_I 5197
▁package_B 5198
▁package_I 5199
▁student_B 5200
▁student_I 5201
▁breath_B 5202
▁breath_I 5203
cro_B 5204
cro_I 5205
▁Ab_B 5206
▁Ab_I 5207
▁seventh_B 5208
▁seventh_I 5209
▁planet_B 5210
▁planet_I 5211
▁seriously_B 5212
▁seriously_I 5213
▁cast_B 5214
▁cast_I 5215
▁total_B 5216
▁total_I 5217
▁texted_B 5218
▁texted_I 5219
▁amount_B 5220
▁amount_I 5221
▁piano_B 5222
▁piano_I 5223
▁mouth_B 5224
▁mouth_I 5225
▁October_B 5226
▁October_I 5227
▁nickname_B 5228
▁nickname_I 5229
▁apparently_B 5230
▁apparently_I 5231
▁Snapchat_B 5232
▁Snapchat_I 5233
dri_B 5234
dri_I 5235
▁Boston_B 5236
▁Boston_I 5237
▁Summer_B 5238
▁Summer_I 5239
cul_B 5240
cul_I 5241
▁Kansas_B 5242
▁Kansas_I 5243
▁Fu_B 5244
▁Fu_I 5245
▁Tre_B 5246
▁Tre_I 5247
▁Lynn_B 5248
▁Lynn_I 5249
▁moon_B 5250
▁moon_I 5251
▁condition_B 5252
▁condition_I 5253
▁Big_B 5254
▁Big_I 5255
gy_B 5256
gy_I 5257
▁Clark_B 5258
▁Clark_I 5259
▁couch_B 5260
▁couch_I 5261
▁gay_B 5262
▁gay_I 5263
▁men_B 5264
▁men_I 5265
▁decide_B 5266
▁decide_I 5267
▁following_B 5268
▁following_I 5269
▁Sho_B 5270
▁Sho_I 5271
ev_B 5272
ev_I 5273
▁position_B 5274
▁position_I 5275
▁experience_B 5276
▁experience_I 5277
▁across_B 5278
▁across_I 5279
▁checked_B 5280
▁checked_I 5281
▁hanging_B 5282
▁hanging_I 5283
▁Hills_B 5284
▁Hills_I 5285
▁paw_B 5286
▁paw_I 5287
▁Fo_B 5288
▁Fo_I 5289
▁careful_B 5290
▁careful_I 5291
▁member_B 5292
▁member_I 5293
▁hole_B 5294
▁hole_I 5295
▁purple_B 5296
▁purple_I 5297
bre_B 5298
bre_I 5299
▁sandwich_B 5300
▁sandwich_I 5301
wer_B 5302
wer_I 5303
▁VoiceOver_B 5304
▁VoiceOver_I 5305
▁match_B 5306
▁match_I 5307
▁battle_B 5308
▁battle_I 5309
ito_B 5310
ito_I 5311
▁Allen_B 5312
▁Allen_I 5313
gram_B 5314
gram_I 5315
▁manager_B 5316
▁manager_I 5317
▁Church_B 5318
▁Church_I 5319
▁Todd_B 5320
▁Todd_I 5321
ano_B 5322
ano_I 5323
▁Grande_B 5324
▁Grande_I 5325
▁obviously_B 5326
▁obviously_I 5327
▁language_B 5328
▁language_I 5329
▁bug_B 5330
▁bug_I 5331
▁Ross_B 5332
▁Ross_I 5333
lene_B 5334
lene_I 5335
▁ABC_B 5336
▁ABC_I 5337
▁Joseph_B 5338
▁Joseph_I 5339
▁mass_B 5340
▁mass_I 5341
▁Chase_B 5342
▁Chase_I 5343
▁Bowl_B 5344
▁Bowl_I 5345
▁Vegas_B 5346
▁Vegas_I 5347
▁gate_B 5348
▁gate_I 5349
▁Sand_B 5350
▁Sand_I 5351
ay_B 5352
ay_I 5353
▁apple_B 5354
▁apple_I 5355
▁Ol_B 5356
▁Ol_I 5357
▁Sue_B 5358
▁Sue_I 5359
▁Au_B 5360
▁Au_I 5361
▁soft_B 5362
▁soft_I 5363
▁Com_B 5364
▁Com_I 5365
▁jazz_B 5366
▁jazz_I 5367
▁grade_B 5368
▁grade_I 5369
▁Missouri_B 5370
▁Missouri_I 5371
▁Andrea_B 5372
▁Andrea_I 5373
▁smell_B 5374
▁smell_I 5375
▁league_B 5376
▁league_I 5377
▁sugar_B 5378
▁sugar_I 5379
car_B 5380
car_I 5381
▁Shi_B 5382
▁Shi_I 5383
▁Nana_B 5384
▁Nana_I 5385
▁link_B 5386
▁link_I 5387
via_B 5388
via_I 5389
▁eggs_B 5390
▁eggs_I 5391
▁Key_B 5392
▁Key_I 5393
▁handle_B 5394
▁handle_I 5395
ax_B 5396
ax_I 5397
ani_B 5398
ani_I 5399
▁Honey_B 5400
▁Honey_I 5401
▁missing_B 5402
▁missing_I 5403
▁accident_B 5404
▁accident_I 5405
▁Lego_B 5406
▁Lego_I 5407
suit_B 5408
suit_I 5409
uck_B 5410
uck_I 5411
▁Char_B 5412
▁Char_I 5413
▁bless_B 5414
▁bless_I 5415
▁Logan_B 5416
▁Logan_I 5417
▁February_B 5418
▁February_I 5419
▁detail_B 5420
▁detail_I 5421
ku_B 5422
ku_I 5423
▁recent_B 5424
▁recent_I 5425
▁Joey_B 5426
▁Joey_I 5427
▁kit_B 5428
▁kit_I 5429
▁bear_B 5430
▁bear_I 5431
▁En_B 5432
▁En_I 5433
▁Chuck_B 5434
▁Chuck_I 5435
▁Court_B 5436
▁Court_I 5437
▁hands_B 5438
▁hands_I 5439
▁Brenda_B 5440
▁Brenda_I 5441
▁Nathan_B 5442
▁Nathan_I 5443
▁vehicle_B 5444
▁vehicle_I 5445
▁Safari_B 5446
▁Safari_I 5447
▁States_B 5448
▁States_I 5449
▁Ci_B 5450
▁Ci_I 5451
▁broken_B 5452
▁broken_I 5453
▁ticket_B 5454
▁ticket_I 5455
▁teach_B 5456
▁teach_I 5457
▁classical_B 5458
▁classical_I 5459
▁version_B 5460
▁version_I 5461
wan_B 5462
wan_I 5463
▁spider_B 5464
▁spider_I 5465
▁depend_B 5466
▁depend_I 5467
▁choose_B 5468
▁choose_I 5469
▁fell_B 5470
▁fell_I 5471
▁Jeremy_B 5472
▁Jeremy_I 5473
▁Wilson_B 5474
▁Wilson_I 5475
▁Kay_B 5476
▁Kay_I 5477
▁showing_B 5478
▁showing_I 5479
▁Lord_B 5480
▁Lord_I 5481
▁recommend_B 5482
▁recommend_I 5483
3_B 5484
3_I 5485
▁mis_B 5486
▁mis_I 5487
bli_B 5488
bli_I 5489
▁AirPods_B 5490
▁AirPods_I 5491
▁convert_B 5492
▁convert_I 5493
▁character_B 5494
▁character_I 5495
▁Marie_B 5496
▁Marie_I 5497
ddy_B 5498
ddy_I 5499
▁entire_B 5500
▁entire_I 5501
▁crack_B 5502
▁crack_I 5503
▁Sweet_B 5504
▁Sweet_I 5505
▁simulator_B 5506
▁simulator_I 5507
▁drug_B 5508
▁drug_I 5509
ium_B 5510
ium_I 5511
▁Chad_B 5512
▁Chad_I 5513
▁Chick_B 5514
▁Chick_I 5515
▁Brother_B 5516
▁Brother_I 5517
▁unfortunately_B 5518
▁unfortunately_I 5519
▁transfer_B 5520
▁transfer_I 5521
▁Pete_B 5522
▁Pete_I 5523
▁Ze_B 5524
▁Ze_I 5525
▁Barbie_B 5526
▁Barbie_I 5527
▁round_B 5528
▁round_I 5529
▁Bruce_B 5530
▁Bruce_I 5531
▁Kenny_B 5532
▁Kenny_I 5533
▁Terry_B 5534
▁Terry_I 5535
ique_B 5536
ique_I 5537
▁strip_B 5538
▁strip_I 5539
bla_B 5540
bla_I 5541
▁HBO_B 5542
▁HBO_I 5543
▁taco_B 5544
▁taco_I 5545
tta_B 5546
tta_I 5547
▁For_B 5548
▁For_I 5549
▁anywhere_B 5550
▁anywhere_I 5551
▁purchase_B 5552
▁purchase_I 5553
▁daily_B 5554
▁daily_I 5555
▁moved_B 5556
▁moved_I 5557
berry_B 5558
berry_I 5559
▁menu_B 5560
▁menu_I 5561
▁Ana_B 5562
▁Ana_I 5563
▁cry_B 5564
▁cry_I 5565
▁woke_B 5566
▁woke_I 5567
▁cooking_B 5568
▁cooking_I 5569
▁passed_B 5570
▁passed_I 5571
▁Gre_B 5572
▁Gre_I 5573
▁DJ_B 5574
▁DJ_I 5575
▁stopped_B 5576
▁stopped_I 5577
▁replace_B 5578
▁replace_I 5579
▁wh_B 5580
▁wh_I 5581
rin_B 5582
rin_I 5583
hol_B 5584
hol_I 5585
▁Anderson_B 5586
▁Anderson_I 5587
▁Ven_B 5588
▁Ven_I 5589
▁max_B 5590
▁max_I 5591
of_B 5592
of_I 5593
▁mall_B 5594
▁mall_I 5595
del_B 5596
del_I 5597
▁pray_B 5598
▁pray_I 5599
▁prefer_B 5600
▁prefer_I 5601
▁Boo_B 5602
▁Boo_I 5603
▁chip_B 5604
▁chip_I 5605
▁theme_B 5606
▁theme_I 5607
▁Brothers_B 5608
▁Brothers_I 5609
▁Juan_B 5610
▁Juan_I 5611
▁William_B 5612
▁William_I 5613
▁awake_B 5614
▁awake_I 5615
▁Oak_B 5616
▁Oak_I 5617
▁flu_B 5618
▁flu_I 5619
▁lyrics_B 5620
▁lyrics_I 5621
▁smile_B 5622
▁smile_I 5623
▁snooze_B 5624
▁snooze_I 5625
▁meat_B 5626
▁meat_I 5627
log_B 5628
log_I 5629
▁brightness_B 5630
▁brightness_I 5631
▁nope_B 5632
▁nope_I 5633
▁lead_B 5634
▁lead_I 5635
▁Wars_B 5636
▁Wars_I 5637
▁sucks_B 5638
▁sucks_I 5639
▁gotten_B 5640
▁gotten_I 5641
lay_B 5642
lay_I 5643
▁Madison_B 5644
▁Madison_I 5645
cer_B 5646
cer_I 5647
▁Gold_B 5648
▁Gold_I 5649
▁Hospital_B 5650
▁Hospital_I 5651
▁pig_B 5652
▁pig_I 5653
pho_B 5654
pho_I 5655
▁Palm_B 5656
▁Palm_I 5657
hal_B 5658
hal_I 5659
▁coach_B 5660
▁coach_I 5661
▁ninja_B 5662
▁ninja_I 5663
▁closet_B 5664
▁closet_I 5665
ery_B 5666
ery_I 5667
▁exit_B 5668
▁exit_I 5669
▁dirty_B 5670
▁dirty_I 5671
▁Oregon_B 5672
▁Oregon_I 5673
▁zone_B 5674
▁zone_I 5675
▁downtown_B 5676
▁downtown_I 5677
▁sheet_B 5678
▁sheet_I 5679
▁Brook_B 5680
▁Brook_I 5681
▁percentage_B 5682
▁percentage_I 5683
▁swing_B 5684
▁swing_I 5685
bert_B 5686
bert_I 5687
▁quarter_B 5688
▁quarter_I 5689
phe_B 5690
phe_I 5691
▁Main_B 5692
▁Main_I 5693
gger_B 5694
gger_I 5695
▁Olivia_B 5696
▁Olivia_I 5697
▁express_B 5698
▁express_I 5699
▁Sharon_B 5700
▁Sharon_I 5701
▁honest_B 5702
▁honest_I 5703
▁Ku_B 5704
▁Ku_I 5705
▁Garden_B 5706
▁Garden_I 5707
▁Tina_B 5708
▁Tina_I 5709
▁Lin_B 5710
▁Lin_I 5711
var_B 5712
var_I 5713
▁site_B 5714
▁site_I 5715
▁Eve_B 5716
▁Eve_I 5717
▁bun_B 5718
▁bun_I 5719
bil_B 5720
bil_I 5721
▁sports_B 5722
▁sports_I 5723
▁helping_B 5724
▁helping_I 5725
▁closer_B 5726
▁closer_I 5727
▁scared_B 5728
▁scared_I 5729
▁telephone_B 5730
▁telephone_I 5731
▁provide_B 5732
▁provide_I 5733
▁Golden_B 5734
▁Golden_I 5735
▁sauce_B 5736
▁sauce_I 5737
▁dreams_B 5738
▁dreams_I 5739
▁brain_B 5740
▁brain_I 5741
▁pulling_B 5742
▁pulling_I 5743
mie_B 5744
mie_I 5745
▁egg_B 5746
▁egg_I 5747
▁Mia_B 5748
▁Mia_I 5749
▁toilet_B 5750
▁toilet_I 5751
▁books_B 5752
▁books_I 5753
▁studio_B 5754
▁studio_I 5755
▁rate_B 5756
▁rate_I 5757
▁Lowe_B 5758
▁Lowe_I 5759
▁def_B 5760
▁def_I 5761
▁Moon_B 5762
▁Moon_I 5763
▁yep_B 5764
▁yep_I 5765
▁Billie_B 5766
▁Billie_I 5767
▁steak_B 5768
▁steak_I 5769
▁Sea_B 5770
▁Sea_I 5771
▁Jonathan_B 5772
▁Jonathan_I 5773
bor_B 5774
bor_I 5775
bel_B 5776
bel_I 5777
▁interesting_B 5778
▁interesting_I 5779
▁include_B 5780
▁include_I 5781
▁hunt_B 5782
▁hunt_I 5783
▁van_B 5784
▁van_I 5785
▁Carter_B 5786
▁Carter_I 5787
▁Ly_B 5788
▁Ly_I 5789
▁lay_B 5790
▁lay_I 5791
▁invite_B 5792
▁invite_I 5793
▁fail_B 5794
▁fail_I 5795
ama_B 5796
ama_I 5797
▁Craig_B 5798
▁Craig_I 5799
view_B 5800
view_I 5801
▁Jesse_B 5802
▁Jesse_I 5803
▁plate_B 5804
▁plate_I 5805
▁otherwise_B 5806
▁otherwise_I 5807
▁cents_B 5808
▁cents_I 5809
▁noise_B 5810
▁noise_I 5811
▁Dennis_B 5812
▁Dennis_I 5813
▁crap_B 5814
▁crap_I 5815
▁banana_B 5816
▁banana_I 5817
▁view_B 5818
▁view_I 5819
▁Dick_B 5820
▁Dick_I 5821
▁master_B 5822
▁master_I 5823
▁ninth_B 5824
▁ninth_I 5825
▁Jill_B 5826
▁Jill_I 5827
zy_B 5828
zy_I 5829
▁ground_B 5830
▁ground_I 5831
▁Miami_B 5832
▁Miami_I 5833
▁LA_B 5834
▁LA_I 5835
▁shuffled_B 5836
▁shuffled_I 5837
▁easier_B 5838
▁easier_I 5839
▁Tommy_B 5840
▁Tommy_I 5841
▁killing_B 5842
▁killing_I 5843
▁Bel_B 5844
▁Bel_I 5845
▁smooth_B 5846
▁smooth_I 5847
▁Dylan_B 5848
▁Dylan_I 5849
▁social_B 5850
▁social_I 5851
▁Walker_B 5852
▁Walker_I 5853
▁design_B 5854
▁design_I 5855
ology_B 5856
ology_I 5857
▁Rod_B 5858
▁Rod_I 5859
▁parts_B 5860
▁parts_I 5861
▁Cody_B 5862
▁Cody_I 5863
▁storm_B 5864
▁storm_I 5865
▁Bon_B 5866
▁Bon_I 5867
▁access_B 5868
▁access_I 5869
▁Place_B 5870
▁Place_I 5871
▁nails_B 5872
▁nails_I 5873
▁sweat_B 5874
▁sweat_I 5875
▁truth_B 5876
▁truth_I 5877
▁receive_B 5878
▁receive_I 5879
▁TikTok_B 5880
▁TikTok_I 5881
▁grandpa_B 5882
▁grandpa_I 5883
▁Judy_B 5884
▁Judy_I 5885
▁shift_B 5886
▁shift_I 5887
▁possibly_B 5888
▁possibly_I 5889
▁quit_B 5890
▁quit_I 5891
▁worried_B 5892
▁worried_I 5893
▁Buck_B 5894
▁Buck_I 5895
▁basically_B 5896
▁basically_I 5897
▁Mrs_B 5898
▁Mrs_I 5899
▁worst_B 5900
▁worst_I 5901
▁bake_B 5902
▁bake_I 5903
ified_B 5904
ified_I 5905
▁Ball_B 5906
▁Ball_I 5907
▁essentials_B 5908
▁essentials_I 5909
▁slime_B 5910
▁slime_I 5911
tru_B 5912
tru_I 5913
ged_B 5914
ged_I 5915
▁Blake_B 5916
▁Blake_I 5917
▁winning_B 5918
▁winning_I 5919
▁Men_B 5920
▁Men_I 5921
▁kinda_B 5922
▁kinda_I 5923
▁Italian_B 5924
▁Italian_I 5925
▁Bru_B 5926
▁Bru_I 5927
▁brown_B 5928
▁brown_I 5929
▁cards_B 5930
▁cards_I 5931
▁fresh_B 5932
▁fresh_I 5933
▁counter_B 5934
▁counter_I 5935
▁within_B 5936
▁within_I 5937
ela_B 5938
ela_I 5939
▁Farm_B 5940
▁Farm_I 5941
▁played_B 5942
▁played_I 5943
▁imagine_B 5944
▁imagine_I 5945
▁Noah_B 5946
▁Noah_I 5947
▁south_B 5948
▁south_I 5949
▁ship_B 5950
▁ship_I 5951
▁hook_B 5952
▁hook_I 5953
▁Oklahoma_B 5954
▁Oklahoma_I 5955
▁roof_B 5956
▁roof_I 5957
▁Donald_B 5958
▁Donald_I 5959
▁shouldn_B 5960
▁shouldn_I 5961
▁quote_B 5962
▁quote_I 5963
ari_B 5964
ari_I 5965
char_B 5966
char_I 5967
▁Atlanta_B 5968
▁Atlanta_I 5969
▁Ever_B 5970
▁Ever_I 5971
▁Japanese_B 5972
▁Japanese_I 5973
▁physical_B 5974
▁physical_I 5975
▁hat_B 5976
▁hat_I 5977
▁rush_B 5978
▁rush_I 5979
ini_B 5980
ini_I 5981
ound_B 5982
ound_I 5983
▁Henry_B 5984
▁Henry_I 5985
▁Yu_B 5986
▁Yu_I 5987
▁notice_B 5988
▁notice_I 5989
▁Pet_B 5990
▁Pet_I 5991
anne_B 5992
anne_I 5993
▁Wisconsin_B 5994
▁Wisconsin_I 5995
▁pharmacy_B 5996
▁pharmacy_I 5997
▁aren_B 5998
▁aren_I 5999
▁Angela_B 6000
▁Angela_I 6001
▁rid_B 6002
▁rid_I 6003
▁wearing_B 6004
▁wearing_I 6005
ara_B 6006
ara_I 6007
▁karaoke_B 6008
▁karaoke_I 6009
▁Land_B 6010
▁Land_I 6011
▁Simon_B 6012
▁Simon_I 6013
▁sat_B 6014
▁sat_I 6015
▁Chan_B 6016
▁Chan_I 6017
din_B 6018
din_I 6019
▁apologize_B 6020
▁apologize_I 6021
▁Fla_B 6022
▁Fla_I 6023
ally_B 6024
ally_I 6025
▁Dean_B 6026
▁Dean_I 6027
▁alive_B 6028
▁alive_I 6029
▁juice_B 6030
▁juice_I 6031
▁pill_B 6032
▁pill_I 6033
▁surprise_B 6034
▁surprise_I 6035
▁expensive_B 6036
▁expensive_I 6037
ism_B 6038
ism_I 6039
hen_B 6040
hen_I 6041
▁Hunter_B 6042
▁Hunter_I 6043
bye_B 6044
bye_I 6045
TV_B 6046
TV_I 6047
▁Dun_B 6048
▁Dun_I 6049
▁term_B 6050
▁term_I 6051
▁classic_B 6052
▁classic_I 6053
▁Lori_B 6054
▁Lori_I 6055
6_B 6056
6_I 6057
▁babies_B 6058
▁babies_I 6059
▁tune_B 6060
▁tune_I 6061
▁focus_B 6062
▁focus_I 6063
▁choice_B 6064
▁choice_I 6065
▁bright_B 6066
▁bright_I 6067
▁tub_B 6068
▁tub_I 6069
▁Carlos_B 6070
▁Carlos_I 6071
zzy_B 6072
zzy_I 6073
▁hasn_B 6074
▁hasn_I 6075
▁Francisco_B 6076
▁Francisco_I 6077
▁Mexican_B 6078
▁Mexican_I 6079
▁regarding_B 6080
▁regarding_I 6081
▁paying_B 6082
▁paying_I 6083
▁Highway_B 6084
▁Highway_I 6085
▁Bal_B 6086
▁Bal_I 6087
▁soup_B 6088
▁soup_I 6089
▁pussy_B 6090
▁pussy_I 6091
▁Joel_B 6092
▁Joel_I 6093
▁emoji_B 6094
▁emoji_I 6095
▁caught_B 6096
▁caught_I 6097
ado_B 6098
ado_I 6099
▁Shannon_B 6100
▁Shannon_I 6101
inger_B 6102
inger_I 6103
▁turkey_B 6104
▁turkey_I 6105
▁attack_B 6106
▁attack_I 6107
▁energy_B 6108
▁energy_I 6109
▁Eddie_B 6110
▁Eddie_I 6111
▁pepper_B 6112
▁pepper_I 6113
▁Christina_B 6114
▁Christina_I 6115
▁ghost_B 6116
▁ghost_I 6117
▁sweetheart_B 6118
▁sweetheart_I 6119
▁medical_B 6120
▁medical_I 6121
▁murder_B 6122
▁murder_I 6123
▁Hotel_B 6124
▁Hotel_I 6125
▁patrol_B 6126
▁patrol_I 6127
▁Ethan_B 6128
▁Ethan_I 6129
▁Celsius_B 6130
▁Celsius_I 6131
▁ordered_B 6132
▁ordered_I 6133
▁conference_B 6134
▁conference_I 6135
▁forever_B 6136
▁forever_I 6137
▁Bad_B 6138
▁Bad_I 6139
box_B 6140
box_I 6141
▁invert_B 6142
▁invert_I 6143
▁singing_B 6144
▁singing_I 6145
▁Lou_B 6146
▁Lou_I 6147
▁Mountain_B 6148
▁Mountain_I 6149
▁cetera_B 6150
▁cetera_I 6151
▁huge_B 6152
▁huge_I 6153
▁problems_B 6154
▁problems_I 6155
ttle_B 6156
ttle_I 6157
▁proud_B 6158
▁proud_I 6159
▁gallon_B 6160
▁gallon_I 6161
▁Barbara_B 6162
▁Barbara_I 6163
▁Fahrenheit_B 6164
▁Fahrenheit_I 6165
▁kept_B 6166
▁kept_I 6167
▁Food_B 6168
▁Food_I 6169
▁Guy_B 6170
▁Guy_I 6171
▁Kai_B 6172
▁Kai_I 6173
▁Diego_B 6174
▁Diego_I 6175
▁Diane_B 6176
▁Diane_I 6177
craft_B 6178
craft_I 6179
▁pan_B 6180
▁pan_I 6181
▁trade_B 6182
▁trade_I 6183
▁fruit_B 6184
▁fruit_I 6185
▁Harris_B 6186
▁Harris_I 6187
▁Jenny_B 6188
▁Jenny_I 6189
▁Hawaii_B 6190
▁Hawaii_I 6191
▁several_B 6192
▁several_I 6193
gin_B 6194
gin_I 6195
vol_B 6196
vol_I 6197
▁pair_B 6198
▁pair_I 6199
▁Victoria_B 6200
▁Victoria_I 6201
▁hug_B 6202
▁hug_I 6203
▁pulled_B 6204
▁pulled_I 6205
▁comment_B 6206
▁comment_I 6207
ola_B 6208
ola_I 6209
▁turned_B 6210
▁turned_I 6211
▁clinic_B 6212
▁clinic_I 6213
▁pump_B 6214
▁pump_I 6215
▁worse_B 6216
▁worse_I 6217
▁Cardi_B 6218
▁Cardi_I 6219
▁Luis_B 6220
▁Luis_I 6221
▁eighties_B 6222
▁eighties_I 6223
▁Pri_B 6224
▁Pri_I 6225
▁population_B 6226
▁population_I 6227
▁twice_B 6228
▁twice_I 6229
▁north_B 6230
▁north_I 6231
▁AT_B 6232
▁AT_I 6233
▁Tracy_B 6234
▁Tracy_I 6235
gal_B 6236
gal_I 6237
▁rental_B 6238
▁rental_I 6239
gh_B 6240
gh_I 6241
ify_B 6242
ify_I 6243
▁response_B 6244
▁response_I 6245
▁Gal_B 6246
▁Gal_I 6247
▁cups_B 6248
▁cups_I 6249
▁Princess_B 6250
▁Princess_I 6251
▁average_B 6252
▁average_I 6253
▁become_B 6254
▁become_I 6255
ification_B 6256
ification_I 6257
▁drinking_B 6258
▁drinking_I 6259
▁wire_B 6260
▁wire_I 6261
▁Nate_B 6262
▁Nate_I 6263
▁Rebecca_B 6264
▁Rebecca_I 6265
▁Quin_B 6266
▁Quin_I 6267
down_B 6268
down_I 6269
▁keys_B 6270
▁keys_I 6271
▁idiot_B 6272
▁idiot_I 6273
▁Canada_B 6274
▁Canada_I 6275
▁Shane_B 6276
▁Shane_I 6277
▁Springs_B 6278
▁Springs_I 6279
▁Warriors_B 6280
▁Warriors_I 6281
▁excuse_B 6282
▁excuse_I 6283
▁Amber_B 6284
▁Amber_I 6285
tation_B 6286
tation_I 6287
▁press_B 6288
▁press_I 6289
bal_B 6290
bal_I 6291
▁tenth_B 6292
▁tenth_I 6293
bridge_B 6294
bridge_I 6295
▁none_B 6296
▁none_I 6297
▁biggest_B 6298
▁biggest_I 6299
▁whether_B 6300
▁whether_I 6301
iff_B 6302
iff_I 6303
▁Dr_B 6304
▁Dr_I 6305
▁centimeters_B 6306
▁centimeters_I 6307
▁Captain_B 6308
▁Captain_I 6309
▁Los_B 6310
▁Los_I 6311
ken_B 6312
ken_I 6313
▁Sandy_B 6314
▁Sandy_I 6315
▁dinosaur_B 6316
▁dinosaur_I 6317
dor_B 6318
dor_I 6319
▁concert_B 6320
▁concert_I 6321
▁diamond_B 6322
▁diamond_I 6323
▁animals_B 6324
▁animals_I 6325
▁lol_B 6326
▁lol_I 6327
▁homework_B 6328
▁homework_I 6329
▁Utah_B 6330
▁Utah_I 6331
▁billion_B 6332
▁billion_I 6333
▁located_B 6334
▁located_I 6335
▁Bible_B 6336
▁Bible_I 6337
▁brand_B 6338
▁brand_I 6339
▁yoga_B 6340
▁yoga_I 6341
fra_B 6342
fra_I 6343
▁Night_B 6344
▁Night_I 6345
▁Shar_B 6346
▁Shar_I 6347
▁Earth_B 6348
▁Earth_I 6349
▁Sky_B 6350
▁Sky_I 6351
▁Dee_B 6352
▁Dee_I 6353
▁Roman_B 6354
▁Roman_I 6355
▁document_B 6356
▁document_I 6357
▁goal_B 6358
▁goal_I 6359
▁doctors_B 6360
▁doctors_I 6361
pro_B 6362
pro_I 6363
▁peace_B 6364
▁peace_I 6365
▁temp_B 6366
▁temp_I 6367
▁stair_B 6368
▁stair_I 6369
bur_B 6370
bur_I 6371
▁towards_B 6372
▁towards_I 6373
▁mirror_B 6374
▁mirror_I 6375
▁spectrum_B 6376
▁spectrum_I 6377
▁Blue_B 6378
▁Blue_I 6379
▁plane_B 6380
▁plane_I 6381
▁Iron_B 6382
▁Iron_I 6383
▁Perry_B 6384
▁Perry_I 6385
▁therapy_B 6386
▁therapy_I 6387
▁accept_B 6388
▁accept_I 6389
▁dig_B 6390
▁dig_I 6391
▁wrap_B 6392
▁wrap_I 6393
sburg_B 6394
sburg_I 6395
▁math_B 6396
▁math_I 6397
▁rule_B 6398
▁rule_I 6399
▁bored_B 6400
▁bored_I 6401
▁Connecticut_B 6402
▁Connecticut_I 6403
▁messenger_B 6404
▁messenger_I 6405
▁Cre_B 6406
▁Cre_I 6407
▁Kayla_B 6408
▁Kayla_I 6409
▁reduce_B 6410
▁reduce_I 6411
▁Stra_B 6412
▁Stra_I 6413
▁Brooklyn_B 6414
▁Brooklyn_I 6415
▁driveway_B 6416
▁driveway_I 6417
boro_B 6418
boro_I 6419
▁Moore_B 6420
▁Moore_I 6421
▁popular_B 6422
▁popular_I 6423
▁fixed_B 6424
▁fixed_I 6425
▁Lewis_B 6426
▁Lewis_I 6427
▁annoying_B 6428
▁annoying_I 6429
▁teen_B 6430
▁teen_I 6431
▁Danielle_B 6432
▁Danielle_I 6433
▁ended_B 6434
▁ended_I 6435
▁currently_B 6436
▁currently_I 6437
▁freaking_B 6438
▁freaking_I 6439
▁pound_B 6440
▁pound_I 6441
▁engine_B 6442
▁engine_I 6443
▁Sy_B 6444
▁Sy_I 6445
▁Air_B 6446
▁Air_I 6447
▁Er_B 6448
▁Er_I 6449
▁Julia_B 6450
▁Julia_I 6451
▁happening_B 6452
▁happening_I 6453
▁Prince_B 6454
▁Prince_I 6455
ef_B 6456
ef_I 6457
▁Uber_B 6458
▁Uber_I 6459
▁dentist_B 6460
▁dentist_I 6461
▁button_B 6462
▁button_I 6463
▁Mal_B 6464
▁Mal_I 6465
▁All_B 6466
▁All_I 6467
▁equals_B 6468
▁equals_I 6469
pl_B 6470
pl_I 6471
▁keeping_B 6472
▁keeping_I 6473
▁Natalie_B 6474
▁Natalie_I 6475
▁title_B 6476
▁title_I 6477
▁simple_B 6478
▁simple_I 6479
mina_B 6480
mina_I 6481
▁Baby_B 6482
▁Baby_I 6483
▁Becky_B 6484
▁Becky_I 6485
pri_B 6486
pri_I 6487
ndra_B 6488
ndra_I 6489
▁spring_B 6490
▁spring_I 6491
▁distance_B 6492
▁distance_I 6493
▁mile_B 6494
▁mile_I 6495
▁security_B 6496
▁security_I 6497
▁Hay_B 6498
▁Hay_I 6499
hr_B 6500
hr_I 6501
star_B 6502
star_I 6503
▁sonic_B 6504
▁sonic_I 6505
▁toys_B 6506
▁toys_I 6507
book_B 6508
book_I 6509
▁require_B 6510
▁require_I 6511
▁difficult_B 6512
▁difficult_I 6513
▁sir_B 6514
▁sir_I 6515
▁hum_B 6516
▁hum_I 6517
▁nail_B 6518
▁nail_I 6519
▁robot_B 6520
▁robot_I 6521
elli_B 6522
elli_I 6523
▁adult_B 6524
▁adult_I 6525
▁Dor_B 6526
▁Dor_I 6527
▁sixth_B 6528
▁sixth_I 6529
▁Drew_B 6530
▁Drew_I 6531
▁shortly_B 6532
▁shortly_I 6533
ona_B 6534
ona_I 6535
lock_B 6536
lock_I 6537
▁speakerphone_B 6538
▁speakerphone_I 6539
▁bucks_B 6540
▁bucks_I 6541
▁scheduled_B 6542
▁scheduled_I 6543
▁inch_B 6544
▁inch_I 6545
▁remix_B 6546
▁remix_I 6547
▁dancing_B 6548
▁dancing_I 6549
▁Angie_B 6550
▁Angie_I 6551
▁Hart_B 6552
▁Hart_I 6553
▁Kra_B 6554
▁Kra_I 6555
ann_B 6556
ann_I 6557
▁loved_B 6558
▁loved_I 6559
tti_B 6560
tti_I 6561
▁deposit_B 6562
▁deposit_I 6563
▁Tiger_B 6564
▁Tiger_I 6565
▁sold_B 6566
▁sold_I 6567
▁Cra_B 6568
▁Cra_I 6569
▁disco_B 6570
▁disco_I 6571
▁fox_B 6572
▁fox_I 6573
ized_B 6574
ized_I 6575
▁action_B 6576
▁action_I 6577
▁owner_B 6578
▁owner_I 6579
▁Inn_B 6580
▁Inn_I 6581
▁favor_B 6582
▁favor_I 6583
▁Pan_B 6584
▁Pan_I 6585
▁praying_B 6586
▁praying_I 6587
▁zombie_B 6588
▁zombie_I 6589
▁nut_B 6590
▁nut_I 6591
▁emergency_B 6592
▁emergency_I 6593
boy_B 6594
boy_I 6595
▁Charlotte_B 6596
▁Charlotte_I 6597
▁Abby_B 6598
▁Abby_I 6599
▁Zi_B 6600
▁Zi_I 6601
▁salt_B 6602
▁salt_I 6603
▁teeth_B 6604
▁teeth_I 6605
▁Casey_B 6606
▁Casey_I 6607
▁Not_B 6608
▁Not_I 6609
▁Ker_B 6610
▁Ker_I 6611
▁groceries_B 6612
▁groceries_I 6613
▁Glen_B 6614
▁Glen_I 6615
▁fucked_B 6616
▁fucked_I 6617
▁maps_B 6618
▁maps_I 6619
▁Iowa_B 6620
▁Iowa_I 6621
9_B 6622
9_I 6623
poli_B 6624
poli_I 6625
▁saving_B 6626
▁saving_I 6627
pal_B 6628
pal_I 6629
hoo_B 6630
hoo_I 6631
oon_B 6632
oon_I 6633
▁Cro_B 6634
▁Cro_I 6635
▁allow_B 6636
▁allow_I 6637
▁reset_B 6638
▁reset_I 6639
pan_B 6640
pan_I 6641
▁Adrian_B 6642
▁Adrian_I 6643
▁Ava_B 6644
▁Ava_I 6645
▁given_B 6646
▁given_I 6647
▁Mason_B 6648
▁Mason_I 6649
▁signed_B 6650
▁signed_I 6651
▁curious_B 6652
▁curious_I 6653
▁Carrie_B 6654
▁Carrie_I 6655
▁artist_B 6656
▁artist_I 6657
bie_B 6658
bie_I 6659
▁kidding_B 6660
▁kidding_I 6661
▁trick_B 6662
▁trick_I 6663
▁Toy_B 6664
▁Toy_I 6665
▁Kid_B 6666
▁Kid_I 6667
▁beauty_B 6668
▁beauty_I 6669
▁serve_B 6670
▁serve_I 6671
▁Ralph_B 6672
▁Ralph_I 6673
▁motor_B 6674
▁motor_I 6675
▁Eilish_B 6676
▁Eilish_I 6677
▁blind_B 6678
▁blind_I 6679
▁Deb_B 6680
▁Deb_I 6681
▁princess_B 6682
▁princess_I 6683
▁Bella_B 6684
▁Bella_I 6685
▁Ve_B 6686
▁Ve_I 6687
▁furniture_B 6688
▁furniture_I 6689
▁launch_B 6690
▁launch_I 6691
▁attention_B 6692
▁attention_I 6693
zer_B 6694
zer_I 6695
zie_B 6696
zie_I 6697
▁owe_B 6698
▁owe_I 6699
▁sales_B 6700
▁sales_I 6701
▁Far_B 6702
▁Far_I 6703
af_B 6704
af_I 6705
▁hero_B 6706
▁hero_I 6707
cie_B 6708
cie_I 6709
nick_B 6710
nick_I 6711
▁deliver_B 6712
▁deliver_I 6713
▁Penn_B 6714
▁Penn_I 6715
▁model_B 6716
▁model_I 6717
▁wrote_B 6718
▁wrote_I 6719
▁major_B 6720
▁major_I 6721
press_B 6722
press_I 6723
▁winter_B 6724
▁winter_I 6725
▁hide_B 6726
▁hide_I 6727
▁rainbow_B 6728
▁rainbow_I 6729
▁comfortable_B 6730
▁comfortable_I 6731
▁sink_B 6732
▁sink_I 6733
▁Diana_B 6734
▁Diana_I 6735
▁Monica_B 6736
▁Monica_I 6737
▁Christopher_B 6738
▁Christopher_I 6739
▁Cooper_B 6740
▁Cooper_I 6741
▁mentioned_B 6742
▁mentioned_I 6743
▁positive_B 6744
▁positive_I 6745
▁Ham_B 6746
▁Ham_I 6747
▁Crystal_B 6748
▁Crystal_I 6749
▁recently_B 6750
▁recently_I 6751
▁Erin_B 6752
▁Erin_I 6753
nar_B 6754
nar_I 6755
▁jam_B 6756
▁jam_I 6757
▁Indian_B 6758
▁Indian_I 6759
▁Nu_B 6760
▁Nu_I 6761
▁lesson_B 6762
▁lesson_I 6763
▁Pre_B 6764
▁Pre_I 6765
▁nurse_B 6766
▁nurse_I 6767
▁ID_B 6768
▁ID_I 6769
▁Airport_B 6770
▁Airport_I 6771
▁Russ_B 6772
▁Russ_I 6773
▁hurry_B 6774
▁hurry_I 6775
▁paperwork_B 6776
▁paperwork_I 6777
▁corn_B 6778
▁corn_I 6779
▁mood_B 6780
▁mood_I 6781
▁Jazz_B 6782
▁Jazz_I 6783
illa_B 6784
illa_I 6785
▁spent_B 6786
▁spent_I 6787
▁exercise_B 6788
▁exercise_I 6789
▁redial_B 6790
▁redial_I 6791
▁Fri_B 6792
▁Fri_I 6793
▁Denver_B 6794
▁Denver_I 6795
▁Massachusetts_B 6796
▁Massachusetts_I 6797
▁massage_B 6798
▁massage_I 6799
▁vote_B 6800
▁vote_I 6801
▁Union_B 6802
▁Union_I 6803
▁Sto_B 6804
▁Sto_I 6805
▁Clay_B 6806
▁Clay_I 6807
▁plug_B 6808
▁plug_I 6809
▁supply_B 6810
▁supply_I 6811
▁Cameron_B 6812
▁Cameron_I 6813
▁bum_B 6814
▁bum_I 6815
▁Jess_B 6816
▁Jess_I 6817
▁Barb_B 6818
▁Barb_I 6819
▁relaxing_B 6820
▁relaxing_I 6821
▁congratulations_B 6822
▁congratulations_I 6823
▁Royal_B 6824
▁Royal_I 6825
Man_B 6826
Man_I 6827
▁Bright_B 6828
▁Bright_I 6829
hood_B 6830
hood_I 6831
▁drunk_B 6832
▁drunk_I 6833
▁duck_B 6834
▁duck_I 6835
▁Spiderman_B 6836
▁Spiderman_I 6837
▁Malone_B 6838
▁Malone_I 6839
▁guitar_B 6840
▁guitar_I 6841
▁Good_B 6842
▁Good_I 6843
▁scar_B 6844
▁scar_I 6845
▁Joan_B 6846
▁Joan_I 6847
▁strange_B 6848
▁strange_I 6849
hee_B 6850
hee_I 6851
▁China_B 6852
▁China_I 6853
▁Walgreens_B 6854
▁Walgreens_I 6855
▁poor_B 6856
▁poor_I 6857
wing_B 6858
wing_I 6859
vic_B 6860
vic_I 6861
▁Club_B 6862
▁Club_I 6863
istic_B 6864
istic_I 6865
▁rice_B 6866
▁rice_I 6867
▁nineties_B 6868
▁nineties_I 6869
fu_B 6870
fu_I 6871
▁charger_B 6872
▁charger_I 6873
▁delivery_B 6874
▁delivery_I 6875
▁Angeles_B 6876
▁Angeles_I 6877
▁flag_B 6878
▁flag_I 6879
▁wanting_B 6880
▁wanting_I 6881
▁lion_B 6882
▁lion_I 6883
▁boots_B 6884
▁boots_I 6885
vel_B 6886
vel_I 6887
▁Courtney_B 6888
▁Courtney_I 6889
▁mid_B 6890
▁mid_I 6891
mond_B 6892
mond_I 6893
▁Pay_B 6894
▁Pay_I 6895
▁allowed_B 6896
▁allowed_I 6897
▁receipt_B 6898
▁receipt_I 6899
horn_B 6900
horn_I 6901
▁rat_B 6902
▁rat_I 6903
▁protect_B 6904
▁protect_I 6905
▁Africa_B 6906
▁Africa_I 6907
▁disturb_B 6908
▁disturb_I 6909
▁Lyn_B 6910
▁Lyn_I 6911
▁collect_B 6912
▁collect_I 6913
▁Vo_B 6914
▁Vo_I 6915
▁Moana_B 6916
▁Moana_I 6917
▁McG_B 6918
▁McG_I 6919
▁CVS_B 6920
▁CVS_I 6921
▁salon_B 6922
▁salon_I 6923
▁carry_B 6924
▁carry_I 6925
mark_B 6926
mark_I 6927
▁SpongeBob_B 6928
▁SpongeBob_I 6929
▁unicorn_B 6930
▁unicorn_I 6931
▁canceled_B 6932
▁canceled_I 6933
▁Rosa_B 6934
▁Rosa_I 6935
▁Hunt_B 6936
▁Hunt_I 6937
▁Ted_B 6938
▁Ted_I 6939
▁Thor_B 6940
▁Thor_I 6941
▁ocean_B 6942
▁ocean_I 6943
▁funeral_B 6944
▁funeral_I 6945
▁Bow_B 6946
▁Bow_I 6947
▁nearby_B 6948
▁nearby_I 6949
▁Sim_B 6950
▁Sim_I 6951
▁Hamilton_B 6952
▁Hamilton_I 6953
▁limit_B 6954
▁limit_I 6955
▁above_B 6956
▁above_I 6957
▁Mouse_B 6958
▁Mouse_I 6959
▁birth_B 6960
▁birth_I 6961
▁direction_B 6962
▁direction_I 6963
▁community_B 6964
▁community_I 6965
▁screw_B 6966
▁screw_I 6967
▁London_B 6968
▁London_I 6969
▁equal_B 6970
▁equal_I 6971
▁department_B 6972
▁department_I 6973
▁Ren_B 6974
▁Ren_I 6975
▁Morris_B 6976
▁Morris_I 6977
▁soul_B 6978
▁soul_I 6979
▁crying_B 6980
▁crying_I 6981
▁application_B 6982
▁application_I 6983
wee_B 6984
wee_I 6985
▁wings_B 6986
▁wings_I 6987
▁film_B 6988
▁film_I 6989
▁thunder_B 6990
▁thunder_I 6991
▁status_B 6992
▁status_I 6993
▁lemon_B 6994
▁lemon_I 6995
pur_B 6996
pur_I 6997
▁monkey_B 6998
▁monkey_I 6999
▁Fin_B 7000
▁Fin_I 7001
▁deck_B 7002
▁deck_I 7003
▁heavy_B 7004
▁heavy_I 7005
▁calculator_B 7006
▁calculator_I 7007
▁media_B 7008
▁media_I 7009
▁Tiffany_B 7010
▁Tiffany_I 7011
▁onto_B 7012
▁onto_I 7013
▁tag_B 7014
▁tag_I 7015
▁calm_B 7016
▁calm_I 7017
▁Maddie_B 7018
▁Maddie_I 7019
▁Yankee_B 7020
▁Yankee_I 7021
▁respect_B 7022
▁respect_I 7023
▁puppy_B 7024
▁puppy_I 7025
▁adopt_B 7026
▁adopt_I 7027
▁outlet_B 7028
▁outlet_I 7029
▁results_B 7030
▁results_I 7031
▁material_B 7032
▁material_I 7033
▁affect_B 7034
▁affect_I 7035
▁Anne_B 7036
▁Anne_I 7037
▁fart_B 7038
▁fart_I 7039
▁Parker_B 7040
▁Parker_I 7041
▁Eagles_B 7042
▁Eagles_I 7043
▁scan_B 7044
▁scan_I 7045
▁Dana_B 7046
▁Dana_I 7047
▁often_B 7048
▁often_I 7049
▁Albert_B 7050
▁Albert_I 7051
▁Dawn_B 7052
▁Dawn_I 7053
path_B 7054
path_I 7055
▁queen_B 7056
▁queen_I 7057
▁legend_B 7058
▁legend_I 7059
▁Freddy_B 7060
▁Freddy_I 7061
▁arrive_B 7062
▁arrive_I 7063
illo_B 7064
illo_I 7065
▁medication_B 7066
▁medication_I 7067
▁Barry_B 7068
▁Barry_I 7069
▁stomach_B 7070
▁stomach_I 7071
▁begin_B 7072
▁begin_I 7073
▁local_B 7074
▁local_I 7075
▁buying_B 7076
▁buying_I 7077
▁alcohol_B 7078
▁alcohol_I 7079
▁Gro_B 7080
▁Gro_I 7081
▁Mami_B 7082
▁Mami_I 7083
▁HomePod_B 7084
▁HomePod_I 7085
▁Maryland_B 7086
▁Maryland_I 7087
▁Cowboys_B 7088
▁Cowboys_I 7089
ability_B 7090
ability_I 7091
▁tight_B 7092
▁tight_I 7093
▁Baker_B 7094
▁Baker_I 7095
▁Fish_B 7096
▁Fish_I 7097
▁metal_B 7098
▁metal_I 7099
▁agent_B 7100
▁agent_I 7101
▁walked_B 7102
▁walked_I 7103
▁commit_B 7104
▁commit_I 7105
▁countdown_B 7106
▁countdown_I 7107
▁earth_B 7108
▁earth_I 7109
▁gorgeous_B 7110
▁gorgeous_I 7111
▁CNN_B 7112
▁CNN_I 7113
MC_B 7114
MC_I 7115
▁fee_B 7116
▁fee_I 7117
▁porn_B 7118
▁porn_I 7119
dio_B 7120
dio_I 7121
▁Denise_B 7122
▁Denise_I 7123
▁closing_B 7124
▁closing_I 7125
▁Bruno_B 7126
▁Bruno_I 7127
▁Holly_B 7128
▁Holly_I 7129
ux_B 7130
ux_I 7131
▁jacket_B 7132
▁jacket_I 7133
▁Sco_B 7134
▁Sco_I 7135
▁bullshit_B 7136
▁bullshit_I 7137
▁Dollar_B 7138
▁Dollar_I 7139
▁hearing_B 7140
▁hearing_I 7141
▁complain_B 7142
▁complain_I 7143
▁quickly_B 7144
▁quickly_I 7145
▁Christine_B 7146
▁Christine_I 7147
▁spin_B 7148
▁spin_I 7149
▁natural_B 7150
▁natural_I 7151
▁heater_B 7152
▁heater_I 7153
▁sort_B 7154
▁sort_I 7155
▁Beatles_B 7156
▁Beatles_I 7157
▁cookies_B 7158
▁cookies_I 7159
ima_B 7160
ima_I 7161
▁Tammy_B 7162
▁Tammy_I 7163
▁hockey_B 7164
▁hockey_I 7165
▁fault_B 7166
▁fault_I 7167
▁cloud_B 7168
▁cloud_I 7169
▁attend_B 7170
▁attend_I 7171
▁dump_B 7172
▁dump_I 7173
▁Den_B 7174
▁Den_I 7175
▁separate_B 7176
▁separate_I 7177
▁neighborhood_B 7178
▁neighborhood_I 7179
▁based_B 7180
▁based_I 7181
▁Wolf_B 7182
▁Wolf_I 7183
▁Ger_B 7184
▁Ger_I 7185
▁Inc_B 7186
▁Inc_I 7187
▁certain_B 7188
▁certain_I 7189
▁Ricky_B 7190
▁Ricky_I 7191
▁tear_B 7192
▁tear_I 7193
▁Gabriel_B 7194
▁Gabriel_I 7195
MA_B 7196
MA_I 7197
crea_B 7198
crea_I 7199
▁Gri_B 7200
▁Gri_I 7201
▁adventure_B 7202
▁adventure_I 7203
▁Stan_B 7204
▁Stan_I 7205
▁items_B 7206
▁items_I 7207
▁loan_B 7208
▁loan_I 7209
▁interest_B 7210
▁interest_I 7211
▁bigger_B 7212
▁bigger_I 7213
▁Jenn_B 7214
▁Jenn_I 7215
▁PS_B 7216
▁PS_I 7217
▁terrible_B 7218
▁terrible_I 7219
▁fake_B 7220
▁fake_I 7221
▁iron_B 7222
▁iron_I 7223
▁Gene_B 7224
▁Gene_I 7225
work_B 7226
work_I 7227
boo_B 7228
boo_I 7229
▁Ye_B 7230
▁Ye_I 7231
▁disc_B 7232
▁disc_I 7233
▁session_B 7234
▁session_I 7235
▁advance_B 7236
▁advance_I 7237
▁mention_B 7238
▁mention_I 7239
▁Nelson_B 7240
▁Nelson_I 7241
▁snack_B 7242
▁snack_I 7243
load_B 7244
load_I 7245
▁famous_B 7246
▁famous_I 7247
▁network_B 7248
▁network_I 7249
▁Falls_B 7250
▁Falls_I 7251
bou_B 7252
bou_I 7253
▁twin_B 7254
▁twin_I 7255
▁knee_B 7256
▁knee_I 7257
▁Lucas_B 7258
▁Lucas_I 7259
▁cru_B 7260
▁cru_I 7261
▁Bunny_B 7262
▁Bunny_I 7263
▁Wells_B 7264
▁Wells_I 7265
▁common_B 7266
▁common_I 7267
ung_B 7268
ung_I 7269
▁USA_B 7270
▁USA_I 7271
▁value_B 7272
▁value_I 7273
▁swim_B 7274
▁swim_I 7275
▁below_B 7276
▁below_I 7277
▁Janet_B 7278
▁Janet_I 7279
▁tank_B 7280
▁tank_I 7281
▁deserve_B 7282
▁deserve_I 7283
▁Batman_B 7284
▁Batman_I 7285
▁High_B 7286
▁High_I 7287
▁effect_B 7288
▁effect_I 7289
▁storage_B 7290
▁storage_I 7291
▁cabinet_B 7292
▁cabinet_I 7293
▁Burger_B 7294
▁Burger_I 7295
▁boxes_B 7296
▁boxes_I 7297
▁Cuz_B 7298
▁Cuz_I 7299
▁Code_B 7300
▁Code_I 7301
▁cock_B 7302
▁cock_I 7303
▁sand_B 7304
▁sand_I 7305
▁taste_B 7306
▁taste_I 7307
haw_B 7308
haw_I 7309
ille_B 7310
ille_I 7311
▁Tor_B 7312
▁Tor_I 7313
▁tip_B 7314
▁tip_I 7315
▁jail_B 7316
▁jail_I 7317
▁Lor_B 7318
▁Lor_I 7319
▁Ellen_B 7320
▁Ellen_I 7321
▁Doo_B 7322
▁Doo_I 7323
▁haircut_B 7324
▁haircut_I 7325
▁general_B 7326
▁general_I 7327
▁grill_B 7328
▁grill_I 7329
▁Hen_B 7330
▁Hen_I 7331
▁lucky_B 7332
▁lucky_I 7333
▁Annie_B 7334
▁Annie_I 7335
▁Mother_B 7336
▁Mother_I 7337
▁Lakers_B 7338
▁Lakers_I 7339
▁Taco_B 7340
▁Taco_I 7341
▁female_B 7342
▁female_I 7343
▁opportunity_B 7344
▁opportunity_I 7345
▁staff_B 7346
▁staff_I 7347
▁mask_B 7348
▁mask_I 7349
▁Ce_B 7350
▁Ce_I 7351
▁measure_B 7352
▁measure_I 7353
▁candy_B 7354
▁candy_I 7355
mbo_B 7356
mbo_I 7357
▁noticed_B 7358
▁noticed_I 7359
▁Brittany_B 7360
▁Brittany_I 7361
▁Paris_B 7362
▁Paris_I 7363
▁musical_B 7364
▁musical_I 7365
▁Antonio_B 7366
▁Antonio_I 7367
gon_B 7368
gon_I 7369
▁added_B 7370
▁added_I 7371
ico_B 7372
ico_I 7373
bar_B 7374
bar_I 7375
bury_B 7376
bury_I 7377
▁Child_B 7378
▁Child_I 7379
list_B 7380
list_I 7381
▁Troy_B 7382
▁Troy_I 7383
▁setting_B 7384
▁setting_I 7385
▁bull_B 7386
▁bull_I 7387
▁Beyoncé_B 7388
▁Beyoncé_I 7389
▁fantastic_B 7390
▁fantastic_I 7391
▁yay_B 7392
▁yay_I 7393
shirt_B 7394
shirt_I 7395
▁Crow_B 7396
▁Crow_I 7397
▁humidity_B 7398
▁humidity_I 7399
▁opinion_B 7400
▁opinion_I 7401
▁rude_B 7402
▁rude_I 7403
▁Leslie_B 7404
▁Leslie_I 7405
▁spray_B 7406
▁spray_I 7407
▁flowers_B 7408
▁flowers_I 7409
▁parent_B 7410
▁parent_I 7411
▁Marvel_B 7412
▁Marvel_I 7413
▁Grey_B 7414
▁Grey_I 7415
▁grams_B 7416
▁grams_I 7417
▁Coco_B 7418
▁Coco_I 7419
▁private_B 7420
▁private_I 7421
▁wave_B 7422
▁wave_I 7423
▁Cook_B 7424
▁Cook_I 7425
▁Orlando_B 7426
▁Orlando_I 7427
▁realized_B 7428
▁realized_I 7429
▁Fran_B 7430
▁Fran_I 7431
▁info_B 7432
▁info_I 7433
▁Fair_B 7434
▁Fair_I 7435
▁asshole_B 7436
▁asshole_I 7437
▁Cheryl_B 7438
▁Cheryl_I 7439
▁Magic_B 7440
▁Magic_I 7441
▁garbage_B 7442
▁garbage_I 7443
▁escape_B 7444
▁escape_I 7445
▁Derek_B 7446
▁Derek_I 7447
▁Nikki_B 7448
▁Nikki_I 7449
▁Brett_B 7450
▁Brett_I 7451
hill_B 7452
hill_I 7453
▁cookie_B 7454
▁cookie_I 7455
▁Duke_B 7456
▁Duke_I 7457
ila_B 7458
ila_I 7459
▁shape_B 7460
▁shape_I 7461
▁Ac_B 7462
▁Ac_I 7463
▁flash_B 7464
▁flash_I 7465
▁unpause_B 7466
▁unpause_I 7467
▁truly_B 7468
▁truly_I 7469
▁flat_B 7470
▁flat_I 7471
▁Riley_B 7472
▁Riley_I 7473
▁Tur_B 7474
▁Tur_I 7475
zel_B 7476
zel_I 7477
▁Alyssa_B 7478
▁Alyssa_I 7479
▁notifications_B 7480
▁notifications_I 7481
▁mountain_B 7482
▁mountain_I 7483
▁Pig_B 7484
▁Pig_I 7485
hl_B 7486
hl_I 7487
chu_B 7488
chu_I 7489
▁example_B 7490
▁example_I 7491
▁Cross_B 7492
▁Cross_I 7493
▁Seattle_B 7494
▁Seattle_I 7495
▁mistake_B 7496
▁mistake_I 7497
▁Jer_B 7498
▁Jer_I 7499
▁Eminem_B 7500
▁Eminem_I 7501
gene_B 7502
gene_I 7503
▁prior_B 7504
▁prior_I 7505
▁assist_B 7506
▁assist_I 7507
▁holy_B 7508
▁holy_I 7509
▁Peppa_B 7510
▁Peppa_I 7511
▁older_B 7512
▁older_I 7513
av_B 7514
av_I 7515
▁borrow_B 7516
▁borrow_I 7517
▁Cup_B 7518
▁Cup_I 7519
▁confused_B 7520
▁confused_I 7521
▁Korea_B 7522
▁Korea_I 7523
▁Ridge_B 7524
▁Ridge_I 7525
▁dragon_B 7526
▁dragon_I 7527
▁Lincoln_B 7528
▁Lincoln_I 7529
▁fishing_B 7530
▁fishing_I 7531
▁enter_B 7532
▁enter_I 7533
▁cheer_B 7534
▁cheer_I 7535
▁CBS_B 7536
▁CBS_I 7537
▁Brent_B 7538
▁Brent_I 7539
▁Ranger_B 7540
▁Ranger_I 7541
▁replay_B 7542
▁replay_I 7543
▁adjust_B 7544
▁adjust_I 7545
rated_B 7546
rated_I 7547
▁Roy_B 7548
▁Roy_I 7549
▁rub_B 7550
▁rub_I 7551
FC_B 7552
FC_I 7553
▁Xbox_B 7554
▁Xbox_I 7555
▁suggest_B 7556
▁suggest_I 7557
▁bite_B 7558
▁bite_I 7559
▁Gina_B 7560
▁Gina_I 7561
bro_B 7562
bro_I 7563
▁assume_B 7564
▁assume_I 7565
▁Edward_B 7566
▁Edward_I 7567
▁ZIP_B 7568
▁ZIP_I 7569
▁delay_B 7570
▁delay_I 7571
▁naked_B 7572
▁naked_I 7573
hor_B 7574
hor_I 7575
▁Ella_B 7576
▁Ella_I 7577
cco_B 7578
cco_I 7579
ED_B 7580
ED_I 7581
▁locked_B 7582
▁locked_I 7583
▁barbecue_B 7584
▁barbecue_I 7585
▁Wick_B 7586
▁Wick_I 7587
▁Bailey_B 7588
▁Bailey_I 7589
▁dang_B 7590
▁dang_I 7591
▁fridge_B 7592
▁fridge_I 7593
▁hung_B 7594
▁hung_I 7595
▁Tal_B 7596
▁Tal_I 7597
▁Philadelphia_B 7598
▁Philadelphia_I 7599
▁infinity_B 7600
▁infinity_I 7601
wn_B 7602
wn_I 7603
▁Bird_B 7604
▁Bird_I 7605
▁spending_B 7606
▁spending_I 7607
nstruct_B 7608
nstruct_I 7609
▁writing_B 7610
▁writing_I 7611
▁spirit_B 7612
▁spirit_I 7613
▁giant_B 7614
▁giant_I 7615
▁Mitchell_B 7616
▁Mitchell_I 7617
▁jack_B 7618
▁jack_I 7619
▁Watch_B 7620
▁Watch_I 7621
▁pregnant_B 7622
▁pregnant_I 7623
▁ridiculous_B 7624
▁ridiculous_I 7625
▁Owen_B 7626
▁Owen_I 7627
▁Phoenix_B 7628
▁Phoenix_I 7629
▁public_B 7630
▁public_I 7631
▁oven_B 7632
▁oven_I 7633
▁FYI_B 7634
▁FYI_I 7635
▁flying_B 7636
▁flying_I 7637
▁Lion_B 7638
▁Lion_I 7639
▁afraid_B 7640
▁afraid_I 7641
▁towel_B 7642
▁towel_I 7643
gel_B 7644
gel_I 7645
▁Law_B 7646
▁Law_I 7647
▁style_B 7648
▁style_I 7649
▁ladies_B 7650
▁ladies_I 7651
ggy_B 7652
ggy_I 7653
▁drama_B 7654
▁drama_I 7655
▁Grant_B 7656
▁Grant_I 7657
▁trap_B 7658
▁trap_I 7659
▁Isabel_B 7660
▁Isabel_I 7661
▁data_B 7662
▁data_I 7663
▁freak_B 7664
▁freak_I 7665
▁pissed_B 7666
▁pissed_I 7667
ula_B 7668
ula_I 7669
▁Thompson_B 7670
▁Thompson_I 7671
▁gang_B 7672
▁gang_I 7673
▁beast_B 7674
▁beast_I 7675
▁Orange_B 7676
▁Orange_I 7677
▁Russell_B 7678
▁Russell_I 7679
Out_B 7680
Out_I 7681
▁split_B 7682
▁split_I 7683
▁Joy_B 7684
▁Joy_I 7685
▁liter_B 7686
▁liter_I 7687
▁lake_B 7688
▁lake_I 7689
▁Maggie_B 7690
▁Maggie_I 7691
▁Panther_B 7692
▁Panther_I 7693
▁tennis_B 7694
▁tennis_I 7695
▁panda_B 7696
▁panda_I 7697
▁cartoon_B 7698
▁cartoon_I 7699
▁cow_B 7700
▁cow_I 7701
▁remote_B 7702
▁remote_I 7703
▁potato_B 7704
▁potato_I 7705
rio_B 7706
rio_I 7707
▁psych_B 7708
▁psych_I 7709
▁Clo_B 7710
▁Clo_I 7711
▁potatoes_B 7712
▁potatoes_I 7713
▁crash_B 7714
▁crash_I 7715
▁mag_B 7716
▁mag_I 7717
▁tournament_B 7718
▁tournament_I 7719
▁invest_B 7720
▁invest_I 7721
▁grass_B 7722
▁grass_I 7723
▁gosh_B 7724
▁gosh_I 7725
▁balance_B 7726
▁balance_I 7727
▁draft_B 7728
▁draft_I 7729
▁Luci_B 7730
▁Luci_I 7731
▁Gray_B 7732
▁Gray_I 7733
▁ASAP_B 7734
▁ASAP_I 7735
▁NBC_B 7736
▁NBC_I 7737
▁classes_B 7738
▁classes_I 7739
▁Sandra_B 7740
▁Sandra_I 7741
▁rough_B 7742
▁rough_I 7743
▁Philip_B 7744
▁Philip_I 7745
▁Shan_B 7746
▁Shan_I 7747
▁Bieber_B 7748
▁Bieber_I 7749
ppy_B 7750
ppy_I 7751
▁ESPN_B 7752
▁ESPN_I 7753
▁sea_B 7754
▁sea_I 7755
▁France_B 7756
▁France_I 7757
▁Howard_B 7758
▁Howard_I 7759
ala_B 7760
ala_I 7761
▁benefit_B 7762
▁benefit_I 7763
▁Beck_B 7764
▁Beck_I 7765
▁Phillip_B 7766
▁Phillip_I 7767
▁cheat_B 7768
▁cheat_I 7769
▁Spring_B 7770
▁Spring_I 7771
ular_B 7772
ular_I 7773
ñ_B 7774
ñ_I 7775
▁speaking_B 7776
▁speaking_I 7777
▁patio_B 7778
▁patio_I 7779
▁neck_B 7780
▁neck_I 7781
▁Lea_B 7782
▁Lea_I 7783
▁horrible_B 7784
▁horrible_I 7785
graph_B 7786
graph_I 7787
▁purpose_B 7788
▁purpose_I 7789
▁Sox_B 7790
▁Sox_I 7791
ello_B 7792
ello_I 7793
▁Mississippi_B 7794
▁Mississippi_I 7795
▁learning_B 7796
▁learning_I 7797
▁higher_B 7798
▁higher_I 7799
▁Mount_B 7800
▁Mount_I 7801
▁selling_B 7802
▁selling_I 7803
▁Ry_B 7804
▁Ry_I 7805
▁healthy_B 7806
▁healthy_I 7807
▁Hard_B 7808
▁Hard_I 7809
ologist_B 7810
ologist_I 7811
▁Murphy_B 7812
▁Murphy_I 7813
▁Brooke_B 7814
▁Brooke_I 7815
▁peanut_B 7816
▁peanut_I 7817
▁although_B 7818
▁although_I 7819
▁concern_B 7820
▁concern_I 7821
▁stopping_B 7822
▁stopping_I 7823
▁fitness_B 7824
▁fitness_I 7825
▁Web_B 7826
▁Web_I 7827
▁beyond_B 7828
▁beyond_I 7829
▁science_B 7830
▁science_I 7831
Play_B 7832
Play_I 7833
▁government_B 7834
▁government_I 7835
▁vet_B 7836
▁vet_I 7837
▁Louisiana_B 7838
▁Louisiana_I 7839
▁Cathy_B 7840
▁Cathy_I 7841
▁Erica_B 7842
▁Erica_I 7843
▁glasses_B 7844
▁glasses_I 7845
▁Clint_B 7846
▁Clint_I 7847
▁Year_B 7848
▁Year_I 7849
▁Under_B 7850
▁Under_I 7851
AP_B 7852
AP_I 7853
vie_B 7854
vie_I 7855
▁roast_B 7856
▁roast_I 7857
▁Honda_B 7858
▁Honda_I 7859
▁Cleveland_B 7860
▁Cleveland_I 7861
away_B 7862
away_I 7863
bell_B 7864
bell_I 7865
▁delivered_B 7866
▁delivered_I 7867
▁Brady_B 7868
▁Brady_I 7869
▁Kristen_B 7870
▁Kristen_I 7871
7_B 7872
7_I 7873
▁JoJo_B 7874
▁JoJo_I 7875
▁damage_B 7876
▁damage_I 7877
▁Hy_B 7878
▁Hy_I 7879
▁marry_B 7880
▁marry_I 7881
▁Steph_B 7882
▁Steph_I 7883
▁Tru_B 7884
▁Tru_I 7885
▁cleaned_B 7886
▁cleaned_I 7887
▁Sophia_B 7888
▁Sophia_I 7889
▁backyard_B 7890
▁backyard_I 7891
▁doubt_B 7892
▁doubt_I 7893
▁Tara_B 7894
▁Tara_I 7895
▁Marcus_B 7896
▁Marcus_I 7897
▁Marco_B 7898
▁Marco_I 7899
▁tiny_B 7900
▁tiny_I 7901
▁Australia_B 7902
▁Australia_I 7903
▁Alicia_B 7904
▁Alicia_I 7905
▁Patty_B 7906
▁Patty_I 7907
▁Cho_B 7908
▁Cho_I 7909
▁Rey_B 7910
▁Rey_I 7911
ically_B 7912
ically_I 7913
▁lift_B 7914
▁lift_I 7915
ov_B 7916
ov_I 7917
▁Galaxy_B 7918
▁Galaxy_I 7919
▁reservation_B 7920
▁reservation_I 7921
▁College_B 7922
▁College_I 7923
▁pure_B 7924
▁pure_I 7925
mailed_B 7926
mailed_I 7927
▁Mah_B 7928
▁Mah_I 7929
▁refrigerator_B 7930
▁refrigerator_I 7931
▁fighting_B 7932
▁fighting_I 7933
▁poo_B 7934
▁poo_I 7935
▁mill_B 7936
▁mill_I 7937
▁riding_B 7938
▁riding_I 7939
▁slip_B 7940
▁slip_I 7941
▁Claire_B 7942
▁Claire_I 7943
▁magic_B 7944
▁magic_I 7945
▁partner_B 7946
▁partner_I 7947
▁Central_B 7948
▁Central_I 7949
▁Grove_B 7950
▁Grove_I 7951
aver_B 7952
aver_I 7953
▁boom_B 7954
▁boom_I 7955
▁Leah_B 7956
▁Leah_I 7957
wal_B 7958
wal_I 7959
▁Allison_B 7960
▁Allison_I 7961
▁Ky_B 7962
▁Ky_I 7963
▁lying_B 7964
▁lying_I 7965
▁prepare_B 7966
▁prepare_I 7967
▁certainly_B 7968
▁certainly_I 7969
avi_B 7970
avi_I 7971
▁slept_B 7972
▁slept_I 7973
gate_B 7974
gate_I 7975
▁midnight_B 7976
▁midnight_I 7977
▁official_B 7978
▁official_I 7979
▁prescription_B 7980
▁prescription_I 7981
▁condo_B 7982
▁condo_I 7983
▁Franklin_B 7984
▁Franklin_I 7985
▁Imagine_B 7986
▁Imagine_I 7987
▁Cle_B 7988
▁Cle_I 7989
▁Samantha_B 7990
▁Samantha_I 7991
ground_B 7992
ground_I 7993
▁Dakota_B 7994
▁Dakota_I 7995
▁Joshua_B 7996
▁Joshua_I 7997
▁painting_B 7998
▁painting_I 7999
▁reschedule_B 8000
▁reschedule_I 8001
▁shade_B 8002
▁shade_I 8003
▁Molly_B 8004
▁Molly_I 8005
izing_B 8006
izing_I 8007
▁outdoor_B 8008
▁outdoor_I 8009
▁snap_B 8010
▁snap_I 8011
▁leak_B 8012
▁leak_I 8013
▁device_B 8014
▁device_I 8015
▁softer_B 8016
▁softer_I 8017
▁register_B 8018
▁register_I 8019
fish_B 8020
fish_I 8021
▁Chelsea_B 8022
▁Chelsea_I 8023
▁meters_B 8024
▁meters_I 8025
▁Ruth_B 8026
▁Ruth_I 8027
▁mermaid_B 8028
▁mermaid_I 8029
▁inspection_B 8030
▁inspection_I 8031
▁burger_B 8032
▁burger_I 8033
▁image_B 8034
▁image_I 8035
aging_B 8036
aging_I 8037
▁Alexis_B 8038
▁Alexis_I 8039
▁Oliver_B 8040
▁Oliver_I 8041
▁Toyota_B 8042
▁Toyota_I 8043
▁swimming_B 8044
▁swimming_I 8045
▁pronounce_B 8046
▁pronounce_I 8047
▁bubble_B 8048
▁bubble_I 8049
▁Leo_B 8050
▁Leo_I 8051
▁dropping_B 8052
▁dropping_I 8053
▁bud_B 8054
▁bud_I 8055
eller_B 8056
eller_I 8057
▁Silver_B 8058
▁Silver_I 8059
▁Neil_B 8060
▁Neil_I 8061
▁bat_B 8062
▁bat_I 8063
chan_B 8064
chan_I 8065
▁Lucy_B 8066
▁Lucy_I 8067
▁neither_B 8068
▁neither_I 8069
▁Caleb_B 8070
▁Caleb_I 8071
▁Cap_B 8072
▁Cap_I 8073
▁championship_B 8074
▁championship_I 8075
leigh_B 8076
leigh_I 8077
▁carpet_B 8078
▁carpet_I 8079
▁captain_B 8080
▁captain_I 8081
▁Arkansas_B 8082
▁Arkansas_I 8083
▁Jared_B 8084
▁Jared_I 8085
▁calories_B 8086
▁calories_I 8087
▁BTS_B 8088
▁BTS_I 8089
▁evil_B 8090
▁evil_I 8091
▁Cash_B 8092
▁Cash_I 8093
▁Betty_B 8094
▁Betty_I 8095
▁laughing_B 8096
▁laughing_I 8097
▁Helen_B 8098
▁Helen_I 8099
▁England_B 8100
▁England_I 8101
▁click_B 8102
▁click_I 8103
▁release_B 8104
▁release_I 8105
▁Mag_B 8106
▁Mag_I 8107
▁psycho_B 8108
▁psycho_I 8109
▁Spider_B 8110
▁Spider_I 8111
▁slide_B 8112
▁slide_I 8113
▁filter_B 8114
▁filter_I 8115
▁Band_B 8116
▁Band_I 8117
▁Mont_B 8118
▁Mont_I 8119
▁featuring_B 8120
▁featuring_I 8121
▁sunshine_B 8122
▁sunshine_I 8123
▁Caroline_B 8124
▁Caroline_I 8125
▁guest_B 8126
▁guest_I 8127
▁Ex_B 8128
▁Ex_I 8129
▁discount_B 8130
▁discount_I 8131
▁tablespoon_B 8132
▁tablespoon_I 8133
▁dying_B 8134
▁dying_I 8135
▁Oscar_B 8136
▁Oscar_I 8137
á_B 8138
á_I 8139
▁Marshall_B 8140
▁Marshall_I 8141
▁Julian_B 8142
▁Julian_I 8143
▁Lily_B 8144
▁Lily_I 8145
▁Chu_B 8146
▁Chu_I 8147
▁liquor_B 8148
▁liquor_I 8149
▁Teresa_B 8150
▁Teresa_I 8151
▁Victor_B 8152
▁Victor_I 8153
water_B 8154
water_I 8155
▁Vanessa_B 8156
▁Vanessa_I 8157
▁Miguel_B 8158
▁Miguel_I 8159
▁Erik_B 8160
▁Erik_I 8161
▁fifteenth_B 8162
▁fifteenth_I 8163
▁specific_B 8164
▁specific_I 8165
▁Lopez_B 8166
▁Lopez_I 8167
▁tech_B 8168
▁tech_I 8169
▁spy_B 8170
▁spy_I 8171
▁dryer_B 8172
▁dryer_I 8173
Mobile_B 8174
Mobile_I 8175
▁connected_B 8176
▁connected_I 8177
▁host_B 8178
▁host_I 8179
ache_B 8180
ache_I 8181
▁Gaga_B 8182
▁Gaga_I 8183
▁Corey_B 8184
▁Corey_I 8185
▁Mid_B 8186
▁Mid_I 8187
▁Kristin_B 8188
▁Kristin_I 8189
▁treatment_B 8190
▁treatment_I 8191
▁claim_B 8192
▁claim_I 8193
▁Chloe_B 8194
▁Chloe_I 8195
▁beef_B 8196
▁beef_I 8197
▁Gil_B 8198
▁Gil_I 8199
▁Patriots_B 8200
▁Patriots_I 8201
▁pocket_B 8202
▁pocket_I 8203
▁scream_B 8204
▁scream_I 8205
▁British_B 8206
▁British_I 8207
▁including_B 8208
▁including_I 8209
▁connection_B 8210
▁connection_I 8211
isha_B 8212
isha_I 8213
▁frame_B 8214
▁frame_I 8215
▁holding_B 8216
▁holding_I 8217
▁plastic_B 8218
▁plastic_I 8219
▁edge_B 8220
▁edge_I 8221
cept_B 8222
cept_I 8223
▁brush_B 8224
▁brush_I 8225
▁iTunes_B 8226
▁iTunes_I 8227
ada_B 8228
ada_I 8229
▁gray_B 8230
▁gray_I 8231
▁decrease_B 8232
▁decrease_I 8233
▁multiple_B 8234
▁multiple_I 8235
▁Alice_B 8236
▁Alice_I 8237
▁anti_B 8238
▁anti_I 8239
▁hack_B 8240
▁hack_I 8241
▁commercial_B 8242
▁commercial_I 8243
phi_B 8244
phi_I 8245
▁plenty_B 8246
▁plenty_I 8247
▁Rome_B 8248
▁Rome_I 8249
▁professional_B 8250
▁professional_I 8251
BC_B 8252
BC_I 8253
▁empty_B 8254
▁empty_I 8255
door_B 8256
door_I 8257
▁Paula_B 8258
▁Paula_I 8259
▁aware_B 8260
▁aware_I 8261
▁Money_B 8262
▁Money_I 8263
▁showman_B 8264
▁showman_I 8265
▁throat_B 8266
▁throat_I 8267
▁Lexi_B 8268
▁Lexi_I 8269
▁leader_B 8270
▁leader_I 8271
▁Trevor_B 8272
▁Trevor_I 8273
▁Kanye_B 8274
▁Kanye_I 8275
▁outfit_B 8276
▁outfit_I 8277
▁bout_B 8278
▁bout_I 8279
▁beans_B 8280
▁beans_I 8281
▁dirt_B 8282
▁dirt_I 8283
▁Fargo_B 8284
▁Fargo_I 8285
▁Lar_B 8286
▁Lar_I 8287
▁legal_B 8288
▁legal_I 8289
▁opera_B 8290
▁opera_I 8291
▁Fra_B 8292
▁Fra_I 8293
▁zoo_B 8294
▁zoo_I 8295
▁Haley_B 8296
▁Haley_I 8297
▁drove_B 8298
▁drove_I 8299
▁angry_B 8300
▁angry_I 8301
▁Down_B 8302
▁Down_I 8303
iv_B 8304
iv_I 8305
▁Jenna_B 8306
▁Jenna_I 8307
▁develop_B 8308
▁develop_I 8309
▁UPS_B 8310
▁UPS_I 8311
▁crew_B 8312
▁crew_I 8313
▁Qua_B 8314
▁Qua_I 8315
▁chain_B 8316
▁chain_I 8317
▁Garcia_B 8318
▁Garcia_I 8319
▁exist_B 8320
▁exist_I 8321
▁lawn_B 8322
▁lawn_I 8323
ika_B 8324
ika_I 8325
▁stayed_B 8326
▁stayed_I 8327
▁tape_B 8328
▁tape_I 8329
▁himself_B 8330
▁himself_I 8331
▁guide_B 8332
▁guide_I 8333
▁pad_B 8334
▁pad_I 8335
ridge_B 8336
ridge_I 8337
▁Hell_B 8338
▁Hell_I 8339
▁Dale_B 8340
▁Dale_I 8341
▁changing_B 8342
▁changing_I 8343
▁Gun_B 8344
▁Gun_I 8345
▁financial_B 8346
▁financial_I 8347
▁shoe_B 8348
▁shoe_I 8349
▁Bren_B 8350
▁Bren_I 8351
▁settle_B 8352
▁settle_I 8353
▁Grand_B 8354
▁Grand_I 8355
▁Waze_B 8356
▁Waze_I 8357
▁endgame_B 8358
▁endgame_I 8359
▁retire_B 8360
▁retire_I 8361
▁surprised_B 8362
▁surprised_I 8363
▁pumpkin_B 8364
▁pumpkin_I 8365
▁cancer_B 8366
▁cancer_I 8367
▁multi_B 8368
▁multi_I 8369
▁costume_B 8370
▁costume_I 8371
▁pea_B 8372
▁pea_I 8373
▁yup_B 8374
▁yup_I 8375
OS_B 8376
OS_I 8377
▁Zack_B 8378
▁Zack_I 8379
▁nervous_B 8380
▁nervous_I 8381
▁vacuum_B 8382
▁vacuum_I 8383
▁Stacy_B 8384
▁Stacy_I 8385
▁Academy_B 8386
▁Academy_I 8387
▁Kee_B 8388
▁Kee_I 8389
▁dispatch_B 8390
▁dispatch_I 8391
▁standard_B 8392
▁standard_I 8393
▁sunrise_B 8394
▁sunrise_I 8395
▁Juice_B 8396
▁Juice_I 8397
▁Andre_B 8398
▁Andre_I 8399
▁extremely_B 8400
▁extremely_I 8401
▁anniversary_B 8402
▁anniversary_I 8403
▁equipment_B 8404
▁equipment_I 8405
▁Tampa_B 8406
▁Tampa_I 8407
▁Sheeran_B 8408
▁Sheeran_I 8409
▁Lindsay_B 8410
▁Lindsay_I 8411
▁Hal_B 8412
▁Hal_I 8413
▁clip_B 8414
▁clip_I 8415
▁stories_B 8416
▁stories_I 8417
break_B 8418
break_I 8419
▁highway_B 8420
▁highway_I 8421
▁Jurassic_B 8422
▁Jurassic_I 8423
▁Katy_B 8424
▁Katy_I 8425
▁flower_B 8426
▁flower_I 8427
▁Water_B 8428
▁Water_I 8429
ency_B 8430
ency_I 8431
▁AJ_B 8432
▁AJ_I 8433
▁Robinson_B 8434
▁Robinson_I 8435
+_B 8436
+_I 8437
▁Camp_B 8438
▁Camp_I 8439
▁Circle_B 8440
▁Circle_I 8441
▁General_B 8442
▁General_I 8443
▁Sydney_B 8444
▁Sydney_I 8445
▁Renee_B 8446
▁Renee_I 8447
▁acting_B 8448
▁acting_I 8449
worth_B 8450
worth_I 8451
▁Maine_B 8452
▁Maine_I 8453
▁invited_B 8454
▁invited_I 8455
▁appear_B 8456
▁appear_I 8457
▁weigh_B 8458
▁weigh_I 8459
▁comedy_B 8460
▁comedy_I 8461
▁Stewart_B 8462
▁Stewart_I 8463
▁actual_B 8464
▁actual_I 8465
▁background_B 8466
▁background_I 8467
▁Mimi_B 8468
▁Mimi_I 8469
▁Pink_B 8470
▁Pink_I 8471
▁enjoyed_B 8472
▁enjoyed_I 8473
▁cable_B 8474
▁cable_I 8475
stein_B 8476
stein_I 8477
▁stink_B 8478
▁stink_I 8479
▁chart_B 8480
▁chart_I 8481
▁actor_B 8482
▁actor_I 8483
▁falling_B 8484
▁falling_I 8485
▁Gordon_B 8486
▁Gordon_I 8487
▁creep_B 8488
▁creep_I 8489
▁yell_B 8490
▁yell_I 8491
▁Seth_B 8492
▁Seth_I 8493
▁Bonnie_B 8494
▁Bonnie_I 8495
▁cough_B 8496
▁cough_I 8497
▁turtle_B 8498
▁turtle_I 8499
▁progress_B 8500
▁progress_I 8501
▁Giants_B 8502
▁Giants_I 8503
▁invoice_B 8504
▁invoice_I 8505
▁Melanie_B 8506
▁Melanie_I 8507
brook_B 8508
brook_I 8509
▁guard_B 8510
▁guard_I 8511
▁garden_B 8512
▁garden_I 8513
▁killer_B 8514
▁killer_I 8515
▁research_B 8516
▁research_I 8517
▁Kennedy_B 8518
▁Kennedy_I 8519
▁passing_B 8520
▁passing_I 8521
▁bomb_B 8522
▁bomb_I 8523
▁coat_B 8524
▁coat_I 8525
▁factor_B 8526
▁factor_I 8527
▁killed_B 8528
▁killed_I 8529
▁concerned_B 8530
▁concerned_I 8531
burn_B 8532
burn_I 8533
▁Light_B 8534
▁Light_I 8535
▁wipe_B 8536
▁wipe_I 8537
▁apply_B 8538
▁apply_I 8539
▁Gay_B 8540
▁Gay_I 8541
▁Portland_B 8542
▁Portland_I 8543
▁construction_B 8544
▁construction_I 8545
▁ignore_B 8546
▁ignore_I 8547
▁section_B 8548
▁section_I 8549
▁Isaac_B 8550
▁Isaac_I 8551
▁Russian_B 8552
▁Russian_I 8553
▁parked_B 8554
▁parked_I 8555
▁lately_B 8556
▁lately_I 8557
▁thirteenth_B 8558
▁thirteenth_I 8559
SA_B 8560
SA_I 8561
▁duty_B 8562
▁duty_I 8563
born_B 8564
born_I 8565
▁shadow_B 8566
▁shadow_I 8567
▁jealous_B 8568
▁jealous_I 8569
▁covered_B 8570
▁covered_I 8571
▁tile_B 8572
▁tile_I 8573
▁further_B 8574
▁further_I 8575
▁Zo_B 8576
▁Zo_I 8577
▁LEGO_B 8578
▁LEGO_I 8579
▁Valentine_B 8580
▁Valentine_I 8581
▁Montana_B 8582
▁Montana_I 8583
▁wide_B 8584
▁wide_I 8585
▁airplane_B 8586
▁airplane_I 8587
▁involved_B 8588
▁involved_I 8589
▁recover_B 8590
▁recover_I 8591
▁Ranch_B 8592
▁Ranch_I 8593
AM_B 8594
AM_I 8595
▁tap_B 8596
▁tap_I 8597
▁headache_B 8598
▁headache_I 8599
▁east_B 8600
▁east_I 8601
▁twentieth_B 8602
▁twentieth_I 8603
▁blessed_B 8604
▁blessed_I 8605
▁Tar_B 8606
▁Tar_I 8607
▁angel_B 8608
▁angel_I 8609
▁loving_B 8610
▁loving_I 8611
▁Simpson_B 8612
▁Simpson_I 8613
▁entertain_B 8614
▁entertain_I 8615
bling_B 8616
bling_I 8617
▁chop_B 8618
▁chop_I 8619
▁planned_B 8620
▁planned_I 8621
▁alien_B 8622
▁alien_I 8623
▁shooting_B 8624
▁shooting_I 8625
▁synonym_B 8626
▁synonym_I 8627
▁arrange_B 8628
▁arrange_I 8629
▁taxes_B 8630
▁taxes_I 8631
▁mental_B 8632
▁mental_I 8633
izer_B 8634
izer_I 8635
▁employee_B 8636
▁employee_I 8637
▁swear_B 8638
▁swear_I 8639
▁Whitney_B 8640
▁Whitney_I 8641
▁boil_B 8642
▁boil_I 8643
▁Lindsey_B 8644
▁Lindsey_I 8645
q_B 8646
q_I 8647
▁Bang_B 8648
▁Bang_I 8649
▁estimate_B 8650
▁estimate_I 8651
▁Laurie_B 8652
▁Laurie_I 8653
▁Sugar_B 8654
▁Sugar_I 8655
▁voiceover_B 8656
▁voiceover_I 8657
▁seal_B 8658
▁seal_I 8659
▁element_B 8660
▁element_I 8661
▁DIRECTV_B 8662
▁DIRECTV_I 8663
▁delicious_B 8664
▁delicious_I 8665
▁dressed_B 8666
▁dressed_I 8667
▁Asian_B 8668
▁Asian_I 8669
▁Nicki_B 8670
▁Nicki_I 8671
▁Buffalo_B 8672
▁Buffalo_I 8673
▁Steelers_B 8674
▁Steelers_I 8675
▁pat_B 8676
▁pat_I 8677
▁thermostat_B 8678
▁thermostat_I 8679
▁Rand_B 8680
▁Rand_I 8681
▁normally_B 8682
▁normally_I 8683
▁tale_B 8684
▁tale_I 8685
▁vegetable_B 8686
▁vegetable_I 8687
▁ETA_B 8688
▁ETA_I 8689
▁odd_B 8690
▁odd_I 8691
▁fear_B 8692
▁fear_I 8693
▁Pittsburgh_B 8694
▁Pittsburgh_I 8695
▁management_B 8696
▁management_I 8697
▁Dominic_B 8698
▁Dominic_I 8699
▁barely_B 8700
▁barely_I 8701
fri_B 8702
fri_I 8703
▁dip_B 8704
▁dip_I 8705
▁improve_B 8706
▁improve_I 8707
▁judge_B 8708
▁judge_I 8709
▁chili_B 8710
▁chili_I 8711
▁booty_B 8712
▁booty_I 8713
▁mailbox_B 8714
▁mailbox_I 8715
▁Qui_B 8716
▁Qui_I 8717
▁snake_B 8718
▁snake_I 8719
▁Zoe_B 8720
▁Zoe_I 8721
▁cruise_B 8722
▁cruise_I 8723
▁Aladdin_B 8724
▁Aladdin_I 8725
▁pipe_B 8726
▁pipe_I 8727
▁noodle_B 8728
▁noodle_I 8729
▁election_B 8730
▁election_I 8731
▁silly_B 8732
▁silly_I 8733
▁quart_B 8734
▁quart_I 8735
▁Elementary_B 8736
▁Elementary_I 8737
▁cleaner_B 8738
▁cleaner_I 8739
bia_B 8740
bia_I 8741
▁Knight_B 8742
▁Knight_I 8743
walk_B 8744
walk_I 8745
▁Mau_B 8746
▁Mau_I 8747
zu_B 8748
zu_I 8749
▁Martinez_B 8750
▁Martinez_I 8751
▁auntie_B 8752
▁auntie_I 8753
▁lawyer_B 8754
▁lawyer_I 8755
▁loss_B 8756
▁loss_I 8757
▁immediately_B 8758
▁immediately_I 8759
▁muscle_B 8760
▁muscle_I 8761
▁range_B 8762
▁range_I 8763
▁Kirk_B 8764
▁Kirk_I 8765
▁Campbell_B 8766
▁Campbell_I 8767
▁Station_B 8768
▁Station_I 8769
▁Meg_B 8770
▁Meg_I 8771
▁bacon_B 8772
▁bacon_I 8773
ER_B 8774
ER_I 8775
▁besides_B 8776
▁besides_I 8777
▁crush_B 8778
▁crush_I 8779
▁tongue_B 8780
▁tongue_I 8781
▁statement_B 8782
▁statement_I 8783
▁attorney_B 8784
▁attorney_I 8785
▁entrance_B 8786
▁entrance_I 8787
▁Village_B 8788
▁Village_I 8789
▁panel_B 8790
▁panel_I 8791
▁factory_B 8792
▁factory_I 8793
▁speech_B 8794
▁speech_I 8795
▁Titans_B 8796
▁Titans_I 8797
▁Dodgers_B 8798
▁Dodgers_I 8799
▁gum_B 8800
▁gum_I 8801
sexual_B 8802
sexual_I 8803
▁Britney_B 8804
▁Britney_I 8805
▁prison_B 8806
▁prison_I 8807
▁county_B 8808
▁county_I 8809
▁nursery_B 8810
▁nursery_I 8811
▁Sabrina_B 8812
▁Sabrina_I 8813
▁excellent_B 8814
▁excellent_I 8815
▁kilometers_B 8816
▁kilometers_I 8817
▁kilograms_B 8818
▁kilograms_I 8819
▁fever_B 8820
▁fever_I 8821
▁Alexander_B 8822
▁Alexander_I 8823
▁drain_B 8824
▁drain_I 8825
▁mow_B 8826
▁mow_I 8827
▁mechanic_B 8828
▁mechanic_I 8829
▁released_B 8830
▁released_I 8831
▁assuming_B 8832
▁assuming_I 8833
▁Tia_B 8834
▁Tia_I 8835
▁Rocky_B 8836
▁Rocky_I 8837
▁Toronto_B 8838
▁Toronto_I 8839
▁television_B 8840
▁television_I 8841
▁freezer_B 8842
▁freezer_I 8843
▁Levi_B 8844
▁Levi_I 8845
▁Grill_B 8846
▁Grill_I 8847
▁Orleans_B 8848
▁Orleans_I 8849
▁exact_B 8850
▁exact_I 8851
▁pork_B 8852
▁pork_I 8853
▁Thai_B 8854
▁Thai_I 8855
▁Harrison_B 8856
▁Harrison_I 8857
▁Lawrence_B 8858
▁Lawrence_I 8859
▁Myers_B 8860
▁Myers_I 8861
▁Cab_B 8862
▁Cab_I 8863
▁Café_B 8864
▁Café_I 8865
▁Caesar_B 8866
▁Caesar_I 8867
▁Sesame_B 8868
▁Sesame_I 8869
ouch_B 8870
ouch_I 8871
▁Cast_B 8872
▁Cast_I 8873
▁PJ_B 8874
▁PJ_I 8875
▁Pra_B 8876
▁Pra_I 8877
▁remain_B 8878
▁remain_I 8879
▁reaction_B 8880
▁reaction_I 8881
▁Sounds_B 8882
▁Sounds_I 8883
▁maintenance_B 8884
▁maintenance_I 8885
▁tycoon_B 8886
▁tycoon_I 8887
▁spread_B 8888
▁spread_I 8889
▁Rush_B 8890
▁Rush_I 8891
▁Jessie_B 8892
▁Jessie_I 8893
▁Dame_B 8894
▁Dame_I 8895
▁Buy_B 8896
▁Buy_I 8897
▁Snow_B 8898
▁Snow_I 8899
▁entry_B 8900
▁entry_I 8901
▁Pine_B 8902
▁Pine_I 8903
▁anxiety_B 8904
▁anxiety_I 8905
▁breast_B 8906
▁breast_I 8907
▁fireplace_B 8908
▁fireplace_I 8909
▁additional_B 8910
▁additional_I 8911
▁basic_B 8912
▁basic_I 8913
▁vision_B 8914
▁vision_I 8915
▁mod_B 8916
▁mod_I 8917
▁Live_B 8918
▁Live_I 8919
▁wallet_B 8920
▁wallet_I 8921
▁Beverly_B 8922
▁Beverly_I 8923
▁Tha_B 8924
▁Tha_I 8925
▁Hawk_B 8926
▁Hawk_I 8927
aker_B 8928
aker_I 8929
▁circle_B 8930
▁circle_I 8931
▁disease_B 8932
▁disease_I 8933
▁motherfucker_B 8934
▁motherfucker_I 8935
▁Nebraska_B 8936
▁Nebraska_I 8937
▁submit_B 8938
▁submit_I 8939
▁huh_B 8940
▁huh_I 8941
▁Gla_B 8942
▁Gla_I 8943
▁filled_B 8944
▁filled_I 8945
▁sixteenth_B 8946
▁sixteenth_I 8947
▁helpful_B 8948
▁helpful_I 8949
▁perhaps_B 8950
▁perhaps_I 8951
▁function_B 8952
▁function_I 8953
▁male_B 8954
▁male_I 8955
▁guarantee_B 8956
▁guarantee_I 8957
▁nightmare_B 8958
▁nightmare_I 8959
▁Arabic_B 8960
▁Arabic_I 8961
▁OMG_B 8962
▁OMG_I 8963
▁Nashville_B 8964
▁Nashville_I 8965
▁attitude_B 8966
▁attitude_I 8967
▁sample_B 8968
▁sample_I 8969
▁Gill_B 8970
▁Gill_I 8971
▁suite_B 8972
▁suite_I 8973
▁eleventh_B 8974
▁eleventh_I 8975
▁Nevada_B 8976
▁Nevada_I 8977
▁spaghetti_B 8978
▁spaghetti_I 8979
▁celebrate_B 8980
▁celebrate_I 8981
▁Warren_B 8982
▁Warren_I 8983
▁liar_B 8984
▁liar_I 8985
▁trim_B 8986
▁trim_I 8987
▁FedEx_B 8988
▁FedEx_I 8989
▁MLB_B 8990
▁MLB_I 8991
▁errands_B 8992
▁errands_I 8993
▁twilight_B 8994
▁twilight_I 8995
▁chuck_B 8996
▁chuck_I 8997
▁dating_B 8998
▁dating_I 8999
▁laying_B 9000
▁laying_I 9001
▁rob_B 9002
▁rob_I 9003
▁international_B 9004
▁international_I 9005
▁Detroit_B 9006
▁Detroit_I 9007
▁ruin_B 9008
▁ruin_I 9009
▁Town_B 9010
▁Town_I 9011
▁Graham_B 9012
▁Graham_I 9013
▁directly_B 9014
▁directly_I 9015
▁announce_B 9016
▁announce_I 9017
▁Turner_B 9018
▁Turner_I 9019
etta_B 9020
etta_I 9021
▁rise_B 9022
▁rise_I 9023
▁scratch_B 9024
▁scratch_I 9025
▁lab_B 9026
▁lab_I 9027
▁Forest_B 9028
▁Forest_I 9029
▁drawing_B 9030
▁drawing_I 9031
▁sentence_B 9032
▁sentence_I 9033
▁similar_B 9034
▁similar_I 9035
▁documentary_B 9036
▁documentary_I 9037
▁Domino_B 9038
▁Domino_I 9039
print_B 9040
print_I 9041
▁sneak_B 9042
▁sneak_I 9043
CC_B 9044
CC_I 9045
▁drag_B 9046
▁drag_I 9047
▁trillion_B 9048
▁trillion_I 9049
osa_B 9050
osa_I 9051
▁Sammy_B 9052
▁Sammy_I 9053
▁rib_B 9054
▁rib_I 9055
▁stage_B 9056
▁stage_I 9057
▁tattoo_B 9058
▁tattoo_I 9059
▁losing_B 9060
▁losing_I 9061
▁blanket_B 9062
▁blanket_I 9063
▁Glenn_B 9064
▁Glenn_I 9065
▁hurricane_B 9066
▁hurricane_I 9067
▁dental_B 9068
▁dental_I 9069
▁fence_B 9070
▁fence_I 9071
▁Cel_B 9072
▁Cel_I 9073
▁motorcycle_B 9074
▁motorcycle_I 9075
▁Idaho_B 9076
▁Idaho_I 9077
▁Kara_B 9078
▁Kara_I 9079
▁Winter_B 9080
▁Winter_I 9081
▁Lamar_B 9082
▁Lamar_I 9083
▁pasta_B 9084
▁pasta_I 9085
▁Preston_B 9086
▁Preston_I 9087
▁cord_B 9088
▁cord_I 9089
▁Floyd_B 9090
▁Floyd_I 9091
▁Sherry_B 9092
▁Sherry_I 9093
▁spec_B 9094
▁spec_I 9095
▁Candy_B 9096
▁Candy_I 9097
▁rip_B 9098
▁rip_I 9099
▁Joyce_B 9100
▁Joyce_I 9101
▁Tro_B 9102
▁Tro_I 9103
▁divorce_B 9104
▁divorce_I 9105
▁Mitch_B 9106
▁Mitch_I 9107
▁horror_B 9108
▁horror_I 9109
▁Elliot_B 9110
▁Elliot_I 9111
▁punch_B 9112
▁punch_I 9113
▁Kin_B 9114
▁Kin_I 9115
▁Holiday_B 9116
▁Holiday_I 9117
▁penis_B 9118
▁penis_I 9119
eau_B 9120
eau_I 9121
▁Whit_B 9122
▁Whit_I 9123
▁Shake_B 9124
▁Shake_I 9125
▁education_B 9126
▁education_I 9127
▁select_B 9128
▁select_I 9129
▁Connie_B 9130
▁Connie_I 9131
▁Gabe_B 9132
▁Gabe_I 9133
▁Catherine_B 9134
▁Catherine_I 9135
▁silver_B 9136
▁silver_I 9137
▁coast_B 9138
▁coast_I 9139
▁India_B 9140
▁India_I 9141
bound_B 9142
bound_I 9143
▁Dustin_B 9144
▁Dustin_I 9145
▁safety_B 9146
▁safety_I 9147
▁Spencer_B 9148
▁Spencer_I 9149
▁Michele_B 9150
▁Michele_I 9151
▁Columbia_B 9152
▁Columbia_I 9153
▁Dunkin_B 9154
▁Dunkin_I 9155
▁bang_B 9156
▁bang_I 9157
▁Solo_B 9158
▁Solo_I 9159
▁Sally_B 9160
▁Sally_I 9161
▁Gmail_B 9162
▁Gmail_I 9163
▁item_B 9164
▁item_I 9165
▁Godzilla_B 9166
▁Godzilla_I 9167
▁Shazam_B 9168
▁Shazam_I 9169
▁apart_B 9170
▁apart_I 9171
▁millimeter_B 9172
▁millimeter_I 9173
▁lonely_B 9174
▁lonely_I 9175
▁accidentally_B 9176
▁accidentally_I 9177
▁Japan_B 9178
▁Japan_I 9179
▁Company_B 9180
▁Company_I 9181
igan_B 9182
igan_I 9183
▁stretch_B 9184
▁stretch_I 9185
▁infection_B 9186
▁infection_I 9187
▁witch_B 9188
▁witch_I 9189
▁alternative_B 9190
▁alternative_I 9191
▁sausage_B 9192
▁sausage_I 9193
▁Sil_B 9194
▁Sil_I 9195
▁Frankie_B 9196
▁Frankie_I 9197
▁perform_B 9198
▁perform_I 9199
▁afford_B 9200
▁afford_I 9201
▁talent_B 9202
▁talent_I 9203
▁President_B 9204
▁President_I 9205
▁handsome_B 9206
▁handsome_I 9207
▁article_B 9208
▁article_I 9209
fold_B 9210
fold_I 9211
▁Hollywood_B 9212
▁Hollywood_I 9213
▁particular_B 9214
▁particular_I 9215
▁pilot_B 9216
▁pilot_I 9217
▁shake_B 9218
▁shake_I 9219
▁medium_B 9220
▁medium_I 9221
▁Leon_B 9222
▁Leon_I 9223
▁Curtis_B 9224
▁Curtis_I 9225
▁dangerous_B 9226
▁dangerous_I 9227
▁Mack_B 9228
▁Mack_I 9229
▁Carson_B 9230
▁Carson_I 9231
$_B 9232
$_I 9233
▁necessary_B 9234
▁necessary_I 9235
▁prank_B 9236
▁prank_I 9237
▁blame_B 9238
▁blame_I 9239
▁pillow_B 9240
▁pillow_I 9241
▁Gavin_B 9242
▁Gavin_I 9243
▁laptop_B 9244
▁laptop_I 9245
▁Tech_B 9246
▁Tech_I 9247
▁guardians_B 9248
▁guardians_I 9249
girl_B 9250
girl_I 9251
▁McCa_B 9252
▁McCa_I 9253
▁dishes_B 9254
▁dishes_I 9255
▁Bradley_B 9256
▁Bradley_I 9257
▁Carolyn_B 9258
▁Carolyn_I 9259
▁mute_B 9260
▁mute_I 9261
▁Chiefs_B 9262
▁Chiefs_I 9263
▁WRLD_B 9264
▁WRLD_I 9265
▁twelfth_B 9266
▁twelfth_I 9267
▁Shirley_B 9268
▁Shirley_I 9269
▁nature_B 9270
▁nature_I 9271
▁Monte_B 9272
▁Monte_I 9273
▁strength_B 9274
▁strength_I 9275
▁activate_B 9276
▁activate_I 9277
▁chest_B 9278
▁chest_I 9279
▁arrived_B 9280
▁arrived_I 9281
▁individual_B 9282
▁individual_I 9283
▁shock_B 9284
▁shock_I 9285
▁seventies_B 9286
▁seventies_I 9287
8_B 9288
8_I 9289
▁author_B 9290
▁author_I 9291
▁Papi_B 9292
▁Papi_I 9293
▁bump_B 9294
▁bump_I 9295
▁exhausted_B 9296
▁exhausted_I 9297
▁estate_B 9298
▁estate_I 9299
▁fourteenth_B 9300
▁fourteenth_I 9301
▁Heidi_B 9302
▁Heidi_I 9303
▁Europe_B 9304
▁Europe_I 9305
▁embarrass_B 9306
▁embarrass_I 9307
▁Kong_B 9308
▁Kong_I 9309
▁Grinch_B 9310
▁Grinch_I 9311
▁Martha_B 9312
▁Martha_I 9313
▁dish_B 9314
▁dish_I 9315
▁mouse_B 9316
▁mouse_I 9317
▁Nina_B 9318
▁Nina_I 9319
▁Ami_B 9320
▁Ami_I 9321
▁sushi_B 9322
▁sushi_I 9323
▁lobby_B 9324
▁lobby_I 9325
▁Butt_B 9326
▁Butt_I 9327
▁lit_B 9328
▁lit_I 9329
▁hamburger_B 9330
▁hamburger_I 9331
▁Kroger_B 9332
▁Kroger_I 9333
▁disappoint_B 9334
▁disappoint_I 9335
▁wreck_B 9336
▁wreck_I 9337
▁fashion_B 9338
▁fashion_I 9339
▁peach_B 9340
▁peach_I 9341
▁nineteenth_B 9342
▁nineteenth_I 9343
▁Blippi_B 9344
▁Blippi_I 9345
▁military_B 9346
▁military_I 9347
▁candle_B 9348
▁candle_I 9349
▁Britt_B 9350
▁Britt_I 9351
▁lease_B 9352
▁lease_I 9353
▁written_B 9354
▁written_I 9355
▁Harbor_B 9356
▁Harbor_I 9357
▁ill_B 9358
▁ill_I 9359
▁colon_B 9360
▁colon_I 9361
▁umbrella_B 9362
▁umbrella_I 9363
▁Vicki_B 9364
▁Vicki_I 9365
▁deli_B 9366
▁deli_I 9367
▁Pacific_B 9368
▁Pacific_I 9369
▁Alaska_B 9370
▁Alaska_I 9371
▁role_B 9372
▁role_I 9373
▁vent_B 9374
▁vent_I 9375
▁supper_B 9376
▁supper_I 9377
▁label_B 9378
▁label_I 9379
▁Rodriguez_B 9380
▁Rodriguez_I 9381
▁potential_B 9382
▁potential_I 9383
▁built_B 9384
▁built_I 9385
▁Garrett_B 9386
▁Garrett_I 9387
▁symptoms_B 9388
▁symptoms_I 9389
▁Omar_B 9390
▁Omar_I 9391
▁TJ_B 9392
▁TJ_I 9393
▁hub_B 9394
▁hub_I 9395
▁Verizon_B 9396
▁Verizon_I 9397
▁Cubs_B 9398
▁Cubs_I 9399
▁flow_B 9400
▁flow_I 9401
▁Hampshire_B 9402
▁Hampshire_I 9403
▁brew_B 9404
▁brew_I 9405
▁Gucci_B 9406
▁Gucci_I 9407
▁Minaj_B 9408
▁Minaj_I 9409
▁Field_B 9410
▁Field_I 9411
▁Cynthia_B 9412
▁Cynthia_I 9413
▁Shelby_B 9414
▁Shelby_I 9415
Girl_B 9416
Girl_I 9417
▁typical_B 9418
▁typical_I 9419
▁steel_B 9420
▁steel_I 9421
▁communication_B 9422
▁communication_I 9423
▁river_B 9424
▁river_I 9425
▁Canadian_B 9426
▁Canadian_I 9427
▁Columbus_B 9428
▁Columbus_I 9429
▁Rihanna_B 9430
▁Rihanna_I 9431
▁threw_B 9432
▁threw_I 9433
omy_B 9434
omy_I 9435
▁hilarious_B 9436
▁hilarious_I 9437
▁Zu_B 9438
▁Zu_I 9439
▁rack_B 9440
▁rack_I 9441
▁Stacey_B 9442
▁Stacey_I 9443
▁Paige_B 9444
▁Paige_I 9445
▁squad_B 9446
▁squad_I 9447
▁mystery_B 9448
▁mystery_I 9449
▁fuel_B 9450
▁fuel_I 9451
▁avoid_B 9452
▁avoid_I 9453
▁budget_B 9454
▁budget_I 9455
▁overnight_B 9456
▁overnight_I 9457
▁Weeknd_B 9458
▁Weeknd_I 9459
▁Reading_B 9460
▁Reading_I 9461
▁diaper_B 9462
▁diaper_I 9463
▁cutting_B 9464
▁cutting_I 9465
▁Father_B 9466
▁Father_I 9467
▁usual_B 9468
▁usual_I 9469
▁rabbit_B 9470
▁rabbit_I 9471
▁Kimberly_B 9472
▁Kimberly_I 9473
▁Meyer_B 9474
▁Meyer_I 9475
▁Savannah_B 9476
▁Savannah_I 9477
▁Carmen_B 9478
▁Carmen_I 9479
▁McCo_B 9480
▁McCo_I 9481
zzi_B 9482
zzi_I 9483
▁charging_B 9484
▁charging_I 9485
▁jelly_B 9486
▁jelly_I 9487
▁photograph_B 9488
▁photograph_I 9489
▁eighteenth_B 9490
▁eighteenth_I 9491
▁Publix_B 9492
▁Publix_I 9493
▁container_B 9494
▁container_I 9495
▁Heights_B 9496
▁Heights_I 9497
AD_B 9498
AD_I 9499
▁according_B 9500
▁according_I 9501
▁resort_B 9502
▁resort_I 9503
▁Vikings_B 9504
▁Vikings_I 9505
▁tomatoes_B 9506
▁tomatoes_I 9507
▁Rhapsody_B 9508
▁Rhapsody_I 9509
▁Liam_B 9510
▁Liam_I 9511
Nine_B 9512
Nine_I 9513
▁impossible_B 9514
▁impossible_I 9515
▁Elvis_B 9516
▁Elvis_I 9517
▁Maya_B 9518
▁Maya_I 9519
▁Toni_B 9520
▁Toni_I 9521
▁Kendrick_B 9522
▁Kendrick_I 9523
▁boob_B 9524
▁boob_I 9525
▁Terri_B 9526
▁Terri_I 9527
▁Mariah_B 9528
▁Mariah_I 9529
▁chapter_B 9530
▁chapter_I 9531
▁senior_B 9532
▁senior_I 9533
▁exam_B 9534
▁exam_I 9535
▁seventeenth_B 9536
▁seventeenth_I 9537
!_B 9538
!_I 9539
▁activity_B 9540
▁activity_I 9541
▁Selena_B 9542
▁Selena_I 9543
▁Avery_B 9544
▁Avery_I 9545
▁fool_B 9546
▁fool_I 9547
▁assistant_B 9548
▁assistant_I 9549
▁Gabby_B 9550
▁Gabby_I 9551
▁flood_B 9552
▁flood_I 9553
▁Sophie_B 9554
▁Sophie_I 9555
▁attached_B 9556
▁attached_I 9557
▁behavior_B 9558
▁behavior_I 9559
▁cab_B 9560
▁cab_I 9561
▁admit_B 9562
▁admit_I 9563
▁Siwa_B 9564
▁Siwa_I 9565
▁thirtieth_B 9566
▁thirtieth_I 9567
▁Sheila_B 9568
▁Sheila_I 9569
▁Leonard_B 9570
▁Leonard_I 9571
▁somehow_B 9572
▁somehow_I 9573
▁Walter_B 9574
▁Walter_I 9575
▁volunteer_B 9576
▁volunteer_I 9577
▁Ski_B 9578
▁Ski_I 9579
▁steal_B 9580
▁steal_I 9581
▁destroy_B 9582
▁destroy_I 9583
▁exchange_B 9584
▁exchange_I 9585
▁sunflower_B 9586
▁sunflower_I 9587
▁Wright_B 9588
▁Wright_I 9589
▁rescue_B 9590
▁rescue_I 9591
▁Milwaukee_B 9592
▁Milwaukee_I 9593
▁shipping_B 9594
▁shipping_I 9595
▁GPS_B 9596
▁GPS_I 9597
▁jeans_B 9598
▁jeans_I 9599
▁twinkle_B 9600
▁twinkle_I 9601
▁profile_B 9602
▁profile_I 9603
▁Kohl_B 9604
▁Kohl_I 9605
▁advice_B 9606
▁advice_I 9607
▁represent_B 9608
▁represent_I 9609
▁Cruz_B 9610
▁Cruz_I 9611
▁Bloom_B 9612
▁Bloom_I 9613
▁recognize_B 9614
▁recognize_I 9615
▁nigga_B 9616
▁nigga_I 9617
ization_B 9618
ization_I 9619
▁Ellie_B 9620
▁Ellie_I 9621
▁Benjamin_B 9622
▁Benjamin_I 9623
▁vitamin_B 9624
▁vitamin_I 9625
▁Stevie_B 9626
▁Stevie_I 9627
▁dealership_B 9628
▁dealership_I 9629
▁concrete_B 9630
▁concrete_I 9631
▁dessert_B 9632
▁dessert_I 9633
▁related_B 9634
▁related_I 9635
▁baking_B 9636
▁baking_I 9637
▁crab_B 9638
▁crab_I 9639
▁extend_B 9640
▁extend_I 9641
▁Wei_B 9642
▁Wei_I 9643
▁Miranda_B 9644
▁Miranda_I 9645
▁Hudson_B 9646
▁Hudson_I 9647
▁Nicholas_B 9648
▁Nicholas_I 9649
▁pitch_B 9650
▁pitch_I 9651
▁Liv_B 9652
▁Liv_I 9653
script_B 9654
script_I 9655
▁Wild_B 9656
▁Wild_I 9657
▁resident_B 9658
▁resident_I 9659
▁Savage_B 9660
▁Savage_I 9661
▁Meghan_B 9662
▁Meghan_I 9663
▁awful_B 9664
▁awful_I 9665
▁exciting_B 9666
▁exciting_I 9667
▁Gloria_B 9668
▁Gloria_I 9669
▁Jeep_B 9670
▁Jeep_I 9671
▁Que_B 9672
▁Que_I 9673
▁sharing_B 9674
▁sharing_I 9675
▁Jasmine_B 9676
▁Jasmine_I 9677
▁Dash_B 9678
▁Dash_I 9679
▁whoever_B 9680
▁whoever_I 9681
▁Ontario_B 9682
▁Ontario_I 9683
▁Audrey_B 9684
▁Audrey_I 9685
▁herself_B 9686
▁herself_I 9687
▁universe_B 9688
▁universe_I 9689
▁marvel_B 9690
▁marvel_I 9691
▁anime_B 9692
▁anime_I 9693
▁memory_B 9694
▁memory_I 9695
▁lick_B 9696
▁lick_I 9697
▁Cyrus_B 9698
▁Cyrus_I 9699
▁supplies_B 9700
▁supplies_I 9701
ault_B 9702
ault_I 9703
mount_B 9704
mount_I 9705
▁Paradise_B 9706
▁Paradise_I 9707
▁Hood_B 9708
▁Hood_I 9709
through_B 9710
through_I 9711
▁Marty_B 9712
▁Marty_I 9713
shore_B 9714
shore_I 9715
▁fries_B 9716
▁fries_I 9717
▁chick_B 9718
▁chick_I 9719
▁clue_B 9720
▁clue_I 9721
▁Shaw_B 9722
▁Shaw_I 9723
▁gimme_B 9724
▁gimme_I 9725
▁branch_B 9726
▁branch_I 9727
▁Western_B 9728
▁Western_I 9729
▁Chevy_B 9730
▁Chevy_I 9731
▁graduation_B 9732
▁graduation_I 9733
▁custom_B 9734
▁custom_I 9735
▁Marley_B 9736
▁Marley_I 9737
▁Kingdom_B 9738
▁Kingdom_I 9739
▁lottery_B 9740
▁lottery_I 9741
▁Ronald_B 9742
▁Ronald_I 9743
▁Pearl_B 9744
▁Pearl_I 9745
▁survive_B 9746
▁survive_I 9747
▁comfort_B 9748
▁comfort_I 9749
▁honor_B 9750
▁honor_I 9751
▁Joanne_B 9752
▁Joanne_I 9753
mouth_B 9754
mouth_I 9755
▁whiskey_B 9756
▁whiskey_I 9757
▁tele_B 9758
▁tele_I 9759
▁Broadway_B 9760
▁Broadway_I 9761
▁nasty_B 9762
▁nasty_I 9763
▁mike_B 9764
▁mike_I 9765
owski_B 9766
owski_I 9767
▁Cocomelon_B 9768
▁Cocomelon_I 9769
▁Department_B 9770
▁Department_I 9771
▁Social_B 9772
▁Social_I 9773
▁Carey_B 9774
▁Carey_I 9775
▁Castle_B 9776
▁Castle_I 9777
▁smoking_B 9778
▁smoking_I 9779
▁whip_B 9780
▁whip_I 9781
MI_B 9782
MI_I 9783
▁backpack_B 9784
▁backpack_I 9785
▁fiancé_B 9786
▁fiancé_I 9787
▁Elmo_B 9788
▁Elmo_I 9789
▁McKe_B 9790
▁McKe_I 9791
▁Heaven_B 9792
▁Heaven_I 9793
▁SNL_B 9794
▁SNL_I 9795
▁lazy_B 9796
▁lazy_I 9797
▁drum_B 9798
▁drum_I 9799
▁Kelsey_B 9800
▁Kelsey_I 9801
▁niece_B 9802
▁niece_I 9803
▁Rita_B 9804
▁Rita_I 9805
▁folk_B 9806
▁folk_I 9807
▁border_B 9808
▁border_I 9809
▁exclamation_B 9810
▁exclamation_I 9811
▁roblox_B 9812
▁roblox_I 9813
▁meditation_B 9814
▁meditation_I 9815
▁Granny_B 9816
▁Granny_I 9817
▁Price_B 9818
▁Price_I 9819
▁Adele_B 9820
▁Adele_I 9821
▁tractor_B 9822
▁tractor_I 9823
▁Coast_B 9824
▁Coast_I 9825
▁chose_B 9826
▁chose_I 9827
▁Kurt_B 9828
▁Kurt_I 9829
▁Stanley_B 9830
▁Stanley_I 9831
▁warehouse_B 9832
▁warehouse_I 9833
▁brake_B 9834
▁brake_I 9835
▁emotional_B 9836
▁emotional_I 9837
▁Thi_B 9838
▁Thi_I 9839
▁Kidz_B 9840
▁Kidz_I 9841
▁Mercedes_B 9842
▁Mercedes_I 9843
▁Bert_B 9844
▁Bert_I 9845
▁Tori_B 9846
▁Tori_I 9847
▁papa_B 9848
▁papa_I 9849
▁brick_B 9850
▁brick_I 9851
▁Peterson_B 9852
▁Peterson_I 9853
▁describe_B 9854
▁describe_I 9855
▁Sheri_B 9856
▁Sheri_I 9857
▁worship_B 9858
▁worship_I 9859
▁gentle_B 9860
▁gentle_I 9861
free_B 9862
free_I 9863
▁alert_B 9864
▁alert_I 9865
▁Yep_B 9866
▁Yep_I 9867
▁fluid_B 9868
▁fluid_I 9869
▁marriage_B 9870
▁marriage_I 9871
▁react_B 9872
▁react_I 9873
▁shelf_B 9874
▁shelf_I 9875
▁highlights_B 9876
▁highlights_I 9877
▁Noise_B 9878
▁Noise_I 9879
▁faith_B 9880
▁faith_I 9881
▁Kristi_B 9882
▁Kristi_I 9883
▁Margaret_B 9884
▁Margaret_I 9885
▁milliliters_B 9886
▁milliliters_I 9887
▁stopwatch_B 9888
▁stopwatch_I 9889
▁region_B 9890
▁region_I 9891
▁Ronnie_B 9892
▁Ronnie_I 9893
▁Patricia_B 9894
▁Patricia_I 9895
▁Square_B 9896
▁Square_I 9897
▁epic_B 9898
▁epic_I 9899
▁alright_B 9900
▁alright_I 9901
▁solution_B 9902
▁solution_I 9903
▁protein_B 9904
▁protein_I 9905
▁invitation_B 9906
▁invitation_I 9907
foot_B 9908
foot_I 9909
▁simply_B 9910
▁simply_I 9911
▁Four_B 9912
▁Four_I 9913
▁elephant_B 9914
▁elephant_I 9915
▁nephew_B 9916
▁nephew_I 9917
▁Kylie_B 9918
▁Kylie_I 9919
▁divide_B 9920
▁divide_I 9921
▁Sunny_B 9922
▁Sunny_I 9923
▁disable_B 9924
▁disable_I 9925
▁skate_B 9926
▁skate_I 9927
▁ultimate_B 9928
▁ultimate_I 9929
▁Valerie_B 9930
▁Valerie_I 9931
▁MO_B 9932
▁MO_I 9933
▁belt_B 9934
▁belt_I 9935
▁Luther_B 9936
▁Luther_I 9937
▁Khalid_B 9938
▁Khalid_I 9939
▁compare_B 9940
▁compare_I 9941
▁Stranger_B 9942
▁Stranger_I 9943
▁chipotle_B 9944
▁chipotle_I 9945
▁Celtics_B 9946
▁Celtics_I 9947
▁string_B 9948
▁string_I 9949
▁stole_B 9950
▁stole_I 9951
▁cowboy_B 9952
▁cowboy_I 9953
▁Duran_B 9954
▁Duran_I 9955
▁tornado_B 9956
▁tornado_I 9957
▁performance_B 9958
▁performance_I 9959
▁Manny_B 9960
▁Manny_I 9961
▁agreement_B 9962
▁agreement_I 9963
▁cube_B 9964
▁cube_I 9965
scribe_B 9966
scribe_I 9967
▁Nico_B 9968
▁Nico_I 9969
▁thumb_B 9970
▁thumb_I 9971
▁Despacito_B 9972
▁Despacito_I 9973
▁piss_B 9974
▁piss_I 9975
▁rocket_B 9976
▁rocket_I 9977
▁Parkway_B 9978
▁Parkway_I 9979
▁coupon_B 9980
▁coupon_I 9981
▁bob_B 9982
▁bob_I 9983
▁blast_B 9984
▁blast_I 9985
▁Republic_B 9986
▁Republic_I 9987
▁minimum_B 9988
▁minimum_I 9989
▁tomato_B 9990
▁tomato_I 9991
▁grateful_B 9992
▁grateful_I 9993
▁crime_B 9994
▁crime_I 9995
▁Douglas_B 9996
▁Douglas_I 9997
▁Peggy_B 9998
▁Peggy_I 9999
▁Vince_B 10000
▁Vince_I 10001
▁Block_B 10002
▁Block_I 10003
▁Isaiah_B 10004
▁Isaiah_I 10005
▁Seahawks_B 10006
▁Seahawks_I 10007
▁panic_B 10008
▁panic_I 10009
▁urgent_B 10010
▁urgent_I 10011
▁XXXTENTACION_B 10012
▁XXXTENTACION_I 10013
▁balloon_B 10014
▁balloon_I 10015
▁Kia_B 10016
▁Kia_I 10017
▁ounce_B 10018
▁ounce_I 10019
▁certificate_B 10020
▁certificate_I 10021
▁batteries_B 10022
▁batteries_I 10023
▁produce_B 10024
▁produce_I 10025
point_B 10026
point_I 10027
▁elevator_B 10028
▁elevator_I 10029
▁Robbie_B 10030
▁Robbie_I 10031
▁Series_B 10032
▁Series_I 10033
▁jet_B 10034
▁jet_I 10035
▁Anatomy_B 10036
▁Anatomy_I 10037
▁Marshmello_B 10038
▁Marshmello_I 10039
▁Spears_B 10040
▁Spears_I 10041
▁suggestion_B 10042
▁suggestion_I 10043
▁Trek_B 10044
▁Trek_I 10045
▁labor_B 10046
▁labor_I 10047
▁Sebastian_B 10048
▁Sebastian_I 10049
▁Memorial_B 10050
▁Memorial_I 10051
▁Faith_B 10052
▁Faith_I 10053
▁Murray_B 10054
▁Murray_I 10055
▁Gomez_B 10056
▁Gomez_I 10057
▁Wonder_B 10058
▁Wonder_I 10059
▁NHL_B 10060
▁NHL_I 10061
▁communicate_B 10062
▁communicate_I 10063
▁motion_B 10064
▁motion_I 10065
▁Buddy_B 10066
▁Buddy_I 10067
▁Arthur_B 10068
▁Arthur_I 10069
▁proof_B 10070
▁proof_I 10071
ó_B 10072
ó_I 10073
▁Springfield_B 10074
▁Springfield_I 10075
▁bow_B 10076
▁bow_I 10077
▁income_B 10078
▁income_I 10079
▁Ruby_B 10080
▁Ruby_I 10081
▁Francis_B 10082
▁Francis_I 10083
▁liquid_B 10084
▁liquid_I 10085
▁timing_B 10086
▁timing_I 10087
▁Jeffrey_B 10088
▁Jeffrey_I 10089
▁dust_B 10090
▁dust_I 10091
▁Rhonda_B 10092
▁Rhonda_I 10093
▁effort_B 10094
▁effort_I 10095
▁Trail_B 10096
▁Trail_I 10097
▁Marilyn_B 10098
▁Marilyn_I 10099
▁fancy_B 10100
▁fancy_I 10101
▁acoustic_B 10102
▁acoustic_I 10103
▁Bubba_B 10104
▁Bubba_I 10105
▁lounge_B 10106
▁lounge_I 10107
▁Bennett_B 10108
▁Bennett_I 10109
▁gig_B 10110
▁gig_I 10111
▁mattress_B 10112
▁mattress_I 10113
▁belong_B 10114
▁belong_I 10115
▁RV_B 10116
▁RV_I 10117
▁Subway_B 10118
▁Subway_I 10119
▁Allie_B 10120
▁Allie_I 10121
▁therapist_B 10122
▁therapist_I 10123
▁Israel_B 10124
▁Israel_I 10125
▁Jefferson_B 10126
▁Jefferson_I 10127
▁technical_B 10128
▁technical_I 10129
▁shame_B 10130
▁shame_I 10131
▁toast_B 10132
▁toast_I 10133
▁surf_B 10134
▁surf_I 10135
▁Public_B 10136
▁Public_I 10137
▁Colleen_B 10138
▁Colleen_I 10139
▁Watson_B 10140
▁Watson_I 10141
▁policy_B 10142
▁policy_I 10143
▁Theresa_B 10144
▁Theresa_I 10145
▁Devin_B 10146
▁Devin_I 10147
▁goddamn_B 10148
▁goddamn_I 10149
▁Bryce_B 10150
▁Bryce_I 10151
▁confirmation_B 10152
▁confirmation_I 10153
▁twist_B 10154
▁twist_I 10155
▁shall_B 10156
▁shall_I 10157
▁Forever_B 10158
▁Forever_I 10159
▁risk_B 10160
▁risk_I 10161
▁miracle_B 10162
▁miracle_I 10163
▁Curry_B 10164
▁Curry_I 10165
▁Patti_B 10166
▁Patti_I 10167
▁Italy_B 10168
▁Italy_I 10169
▁familiar_B 10170
▁familiar_I 10171
▁powder_B 10172
▁powder_I 10173
▁instrumental_B 10174
▁instrumental_I 10175
▁classroom_B 10176
▁classroom_I 10177
▁basket_B 10178
▁basket_I 10179
▁Rhode_B 10180
▁Rhode_I 10181
▁GTA_B 10182
▁GTA_I 10183
▁Sierra_B 10184
▁Sierra_I 10185
▁modern_B 10186
▁modern_I 10187
▁purse_B 10188
▁purse_I 10189
▁loop_B 10190
▁loop_I 10191
▁Foster_B 10192
▁Foster_I 10193
▁erase_B 10194
▁erase_I 10195
▁cereal_B 10196
▁cereal_I 10197
▁Shaun_B 10198
▁Shaun_I 10199
▁Richie_B 10200
▁Richie_I 10201
▁initial_B 10202
▁initial_I 10203
uke_B 10204
uke_I 10205
▁reference_B 10206
▁reference_I 10207
▁Trish_B 10208
▁Trish_I 10209
▁Lang_B 10210
▁Lang_I 10211
▁Hampton_B 10212
▁Hampton_I 10213
▁Eagle_B 10214
▁Eagle_I 10215
▁degree_B 10216
▁degree_I 10217
▁electronic_B 10218
▁electronic_I 10219
▁Tower_B 10220
▁Tower_I 10221
▁replacement_B 10222
▁replacement_I 10223
▁Nintendo_B 10224
▁Nintendo_I 10225
▁Raptors_B 10226
▁Raptors_I 10227
▁monitor_B 10228
▁monitor_I 10229
▁cabin_B 10230
▁cabin_I 10231
▁poison_B 10232
▁poison_I 10233
▁Einstein_B 10234
▁Einstein_I 10235
▁convenient_B 10236
▁convenient_I 10237
▁cupcake_B 10238
▁cupcake_I 10239
▁Spi_B 10240
▁Spi_I 10241
▁patch_B 10242
▁patch_I 10243
▁memories_B 10244
▁memories_I 10245
▁precious_B 10246
▁precious_I 10247
▁organize_B 10248
▁organize_I 10249
▁joy_B 10250
▁joy_I 10251
▁Kardashian_B 10252
▁Kardashian_I 10253
▁maximum_B 10254
▁maximum_I 10255
▁frog_B 10256
▁frog_I 10257
▁Rosie_B 10258
▁Rosie_I 10259
▁woodchuck_B 10260
▁woodchuck_I 10261
▁Sinatra_B 10262
▁Sinatra_I 10263
▁semi_B 10264
▁semi_I 10265
▁extension_B 10266
▁extension_I 10267
▁Donuts_B 10268
▁Donuts_I 10269
▁Channel_B 10270
▁Channel_I 10271
▁Vincent_B 10272
▁Vincent_I 10273
▁Dodge_B 10274
▁Dodge_I 10275
▁Security_B 10276
▁Security_I 10277
▁superhero_B 10278
▁superhero_I 10279
▁torch_B 10280
▁torch_I 10281
▁treasure_B 10282
▁treasure_I 10283
▁Toby_B 10284
▁Toby_I 10285
ulate_B 10286
ulate_I 10287
▁Janice_B 10288
▁Janice_I 10289
▁playoffs_B 10290
▁playoffs_I 10291
▁Packers_B 10292
▁Packers_I 10293
▁sunny_B 10294
▁sunny_I 10295
▁Marvin_B 10296
▁Marvin_I 10297
▁Cincinnati_B 10298
▁Cincinnati_I 10299
▁stitch_B 10300
▁stitch_I 10301
▁loose_B 10302
▁loose_I 10303
▁Gilbert_B 10304
▁Gilbert_I 10305
▁thick_B 10306
▁thick_I 10307
▁Tucker_B 10308
▁Tucker_I 10309
▁folder_B 10310
▁folder_I 10311
▁attract_B 10312
▁attract_I 10313
▁Reese_B 10314
▁Reese_I 10315
▁Southwest_B 10316
▁Southwest_I 10317
▁audit_B 10318
▁audit_I 10319
▁eventually_B 10320
▁eventually_I 10321
▁zodiac_B 10322
▁zodiac_I 10323
▁gain_B 10324
▁gain_I 10325
▁held_B 10326
▁held_I 10327
▁National_B 10328
▁National_I 10329
▁Idol_B 10330
▁Idol_I 10331
▁pancake_B 10332
▁pancake_I 10333
▁vagina_B 10334
▁vagina_I 10335
▁Brazil_B 10336
▁Brazil_I 10337
▁heaven_B 10338
▁heaven_I 10339
▁addict_B 10340
▁addict_I 10341
▁Trent_B 10342
▁Trent_I 10343
▁pleasure_B 10344
▁pleasure_I 10345
▁Greek_B 10346
▁Greek_I 10347
▁bucket_B 10348
▁bucket_I 10349
▁Susie_B 10350
▁Susie_I 10351
▁Pony_B 10352
▁Pony_I 10353
▁flavor_B 10354
▁flavor_I 10355
▁Covid_B 10356
▁Covid_I 10357
▁Calvin_B 10358
▁Calvin_I 10359
▁Bohemian_B 10360
▁Bohemian_I 10361
▁Veronica_B 10362
▁Veronica_I 10363
▁diarrhea_B 10364
▁diarrhea_I 10365
▁Richmond_B 10366
▁Richmond_I 10367
▁Family_B 10368
▁Family_I 10369
▁Kaitlyn_B 10370
▁Kaitlyn_I 10371
▁forgive_B 10372
▁forgive_I 10373
▁command_B 10374
▁command_I 10375
▁Devil_B 10376
▁Devil_I 10377
▁operation_B 10378
▁operation_I 10379
▁Hernandez_B 10380
▁Hernandez_I 10381
▁easily_B 10382
▁easily_I 10383
▁stain_B 10384
▁stain_I 10385
▁discovery_B 10386
▁discovery_I 10387
▁soldier_B 10388
▁soldier_I 10389
▁gear_B 10390
▁gear_I 10391
▁happier_B 10392
▁happier_I 10393
▁mortgage_B 10394
▁mortgage_I 10395
▁permit_B 10396
▁permit_I 10397
front_B 10398
front_I 10399
▁Jacque_B 10400
▁Jacque_I 10401
▁fraction_B 10402
▁fraction_I 10403
▁Spirit_B 10404
▁Spirit_I 10405
▁blonde_B 10406
▁blonde_I 10407
▁boring_B 10408
▁boring_I 10409
▁Esp_B 10410
▁Esp_I 10411
▁nugget_B 10412
▁nugget_I 10413
▁kilo_B 10414
▁kilo_I 10415
▁plumbing_B 10416
▁plumbing_I 10417
▁solid_B 10418
▁solid_I 10419
▁jungle_B 10420
▁jungle_I 10421
▁Speed_B 10422
▁Speed_I 10423
▁BBC_B 10424
▁BBC_I 10425
▁Chernobyl_B 10426
▁Chernobyl_I 10427
▁disconnect_B 10428
▁disconnect_I 10429
▁lullaby_B 10430
▁lullaby_I 10431
▁JJ_B 10432
▁JJ_I 10433
▁gymnastics_B 10434
▁gymnastics_I 10435
▁Sports_B 10436
▁Sports_I 10437
▁muffin_B 10438
▁muffin_I 10439
▁daycare_B 10440
▁daycare_I 10441
▁Hayden_B 10442
▁Hayden_I 10443
▁rhyme_B 10444
▁rhyme_I 10445
▁Shelly_B 10446
▁Shelly_I 10447
▁merry_B 10448
▁merry_I 10449
▁Darren_B 10450
▁Darren_I 10451
▁Voice_B 10452
▁Voice_I 10453
▁comma_B 10454
▁comma_I 10455
▁chase_B 10456
▁chase_I 10457
▁companies_B 10458
▁companies_I 10459
▁silence_B 10460
▁silence_I 10461
▁Oakland_B 10462
▁Oakland_I 10463
▁Northwest_B 10464
▁Northwest_I 10465
▁Coldplay_B 10466
▁Coldplay_I 10467
▁envelope_B 10468
▁envelope_I 10469
▁gaming_B 10470
▁gaming_I 10471
▁Devon_B 10472
▁Devon_I 10473
▁accent_B 10474
▁accent_I 10475
▁Ariel_B 10476
▁Ariel_I 10477
▁Beau_B 10478
▁Beau_I 10479
▁microwave_B 10480
▁microwave_I 10481
▁puppies_B 10482
▁puppies_I 10483
▁shrimp_B 10484
▁shrimp_I 10485
▁underneath_B 10486
▁underneath_I 10487
▁Tanner_B 10488
▁Tanner_I 10489
▁Auburn_B 10490
▁Auburn_I 10491
stead_B 10492
stead_I 10493
▁sync_B 10494
▁sync_I 10495
▁BMW_B 10496
▁BMW_I 10497
▁Clemson_B 10498
▁Clemson_I 10499
▁Jaime_B 10500
▁Jaime_I 10501
Reilly_B 10502
Reilly_I 10503
í_B 10504
í_I 10505
▁opposite_B 10506
▁opposite_I 10507
▁nowhere_B 10508
▁nowhere_I 10509
▁Pooh_B 10510
▁Pooh_I 10511
▁Olive_B 10512
▁Olive_I 10513
▁scale_B 10514
▁scale_I 10515
▁Wyatt_B 10516
▁Wyatt_I 10517
▁competition_B 10518
▁competition_I 10519
▁thunderstorm_B 10520
▁thunderstorm_I 10521
▁glove_B 10522
▁glove_I 10523
▁Shrek_B 10524
▁Shrek_I 10525
▁Jorge_B 10526
▁Jorge_I 10527
▁roster_B 10528
▁roster_I 10529
▁Olympic_B 10530
▁Olympic_I 10531
▁activities_B 10532
▁activities_I 10533
▁nightstand_B 10534
▁nightstand_I 10535
▁brief_B 10536
▁brief_I 10537
▁Cliff_B 10538
▁Cliff_I 10539
▁drip_B 10540
▁drip_I 10541
▁shine_B 10542
▁shine_I 10543
▁blank_B 10544
▁blank_I 10545
▁formula_B 10546
▁formula_I 10547
▁stats_B 10548
▁stats_I 10549
▁NOW_B 10550
▁NOW_I 10551
▁Sofia_B 10552
▁Sofia_I 10553
▁granny_B 10554
▁granny_I 10555
▁Anita_B 10556
▁Anita_I 10557
▁homecoming_B 10558
▁homecoming_I 10559
▁awkward_B 10560
▁awkward_I 10561
▁Griffin_B 10562
▁Griffin_I 10563
▁stamp_B 10564
▁stamp_I 10565
▁casino_B 10566
▁casino_I 10567
▁Aiden_B 10568
▁Aiden_I 10569
▁instant_B 10570
▁instant_I 10571
▁PlayStation_B 10572
▁PlayStation_I 10573
▁nursing_B 10574
▁nursing_I 10575
▁Samsung_B 10576
▁Samsung_I 10577
▁housewives_B 10578
▁housewives_I 10579
▁Harvey_B 10580
▁Harvey_I 10581
▁inspect_B 10582
▁inspect_I 10583
▁Sacramento_B 10584
▁Sacramento_I 10585
▁yogurt_B 10586
▁yogurt_I 10587
▁vanilla_B 10588
▁vanilla_I 10589
▁Trader_B 10590
▁Trader_I 10591
▁Ellis_B 10592
▁Ellis_I 10593
▁Pikachu_B 10594
▁Pikachu_I 10595
▁firetruck_B 10596
▁firetruck_I 10597
▁devil_B 10598
▁devil_I 10599
▁jerk_B 10600
▁jerk_I 10601
▁suicide_B 10602
▁suicide_I 10603
▁engage_B 10604
▁engage_I 10605
▁bride_B 10606
▁bride_I 10607
▁vibe_B 10608
▁vibe_I 10609
▁sudden_B 10610
▁sudden_I 10611
▁royal_B 10612
▁royal_I 10613
▁Raymond_B 10614
▁Raymond_I 10615
▁cheek_B 10616
▁cheek_I 10617
▁Tesla_B 10618
▁Tesla_I 10619
▁liberty_B 10620
▁liberty_I 10621
▁lettuce_B 10622
▁lettuce_I 10623
▁locate_B 10624
▁locate_I 10625
▁Claudia_B 10626
▁Claudia_I 10627
▁pineapple_B 10628
▁pineapple_I 10629
▁trail_B 10630
▁trail_I 10631
▁thrill_B 10632
▁thrill_I 10633
▁donuts_B 10634
▁donuts_I 10635
▁disgusting_B 10636
▁disgusting_I 10637
▁adorable_B 10638
▁adorable_I 10639
▁success_B 10640
▁success_I 10641
▁burrito_B 10642
▁burrito_I 10643
▁praise_B 10644
▁praise_I 10645
▁appropriate_B 10646
▁appropriate_I 10647
▁glue_B 10648
▁glue_I 10649
▁Berg_B 10650
▁Berg_I 10651
▁TNT_B 10652
▁TNT_I 10653
▁Scooby_B 10654
▁Scooby_I 10655
▁Panera_B 10656
▁Panera_I 10657
▁junk_B 10658
▁junk_I 10659
▁Sullivan_B 10660
▁Sullivan_I 10661
▁spark_B 10662
▁spark_I 10663
▁Baltimore_B 10664
▁Baltimore_I 10665
▁Henderson_B 10666
▁Henderson_I 10667
▁mushroom_B 10668
▁mushroom_I 10669
▁encourage_B 10670
▁encourage_I 10671
▁task_B 10672
▁task_I 10673
▁marijuana_B 10674
▁marijuana_I 10675
▁Butler_B 10676
▁Butler_I 10677
▁Southern_B 10678
▁Southern_I 10679
▁fried_B 10680
▁fried_I 10681
▁bullet_B 10682
▁bullet_I 10683
▁audible_B 10684
▁audible_I 10685
▁funniest_B 10686
▁funniest_I 10687
▁routine_B 10688
▁routine_I 10689
▁Kathleen_B 10690
▁Kathleen_I 10691
▁Suzanne_B 10692
▁Suzanne_I 10693
▁garlic_B 10694
▁garlic_I 10695
▁racing_B 10696
▁racing_I 10697
▁Mendes_B 10698
▁Mendes_I 10699
▁trial_B 10700
▁trial_I 10701
▁Dwayne_B 10702
▁Dwayne_I 10703
▁Caribbean_B 10704
▁Caribbean_I 10705
▁facility_B 10706
▁facility_I 10707
▁smash_B 10708
▁smash_I 10709
▁climb_B 10710
▁climb_I 10711
▁PBS_B 10712
▁PBS_I 10713
▁Cedar_B 10714
▁Cedar_I 10715
▁dishwasher_B 10716
▁dishwasher_I 10717
▁Sissy_B 10718
▁Sissy_I 10719
▁Hailey_B 10720
▁Hailey_I 10721
▁drill_B 10722
▁drill_I 10723
▁grandmother_B 10724
▁grandmother_I 10725
▁rehab_B 10726
▁rehab_I 10727
Neal_B 10728
Neal_I 10729
▁Justice_B 10730
▁Justice_I 10731
▁teaspoon_B 10732
▁teaspoon_I 10733
/_B 10734
/_I 10735
▁LeBron_B 10736
▁LeBron_I 10737
cious_B 10738
cious_I 10739
▁Rodney_B 10740
▁Rodney_I 10741
▁rug_B 10742
▁rug_I 10743
▁Manchester_B 10744
▁Manchester_I 10745
▁jewelry_B 10746
▁jewelry_I 10747
▁knife_B 10748
▁knife_I 10749
▁Kendall_B 10750
▁Kendall_I 10751
▁afterwards_B 10752
▁afterwards_I 10753
▁Beyblade_B 10754
▁Beyblade_I 10755
▁avocado_B 10756
▁avocado_I 10757
▁Earl_B 10758
▁Earl_I 10759
▁convenience_B 10760
▁convenience_I 10761
▁volleyball_B 10762
▁volleyball_I 10763
▁bachelorette_B 10764
▁bachelorette_I 10765
▁headphones_B 10766
▁headphones_I 10767
▁yummy_B 10768
▁yummy_I 10769
▁hardware_B 10770
▁hardware_I 10771
▁source_B 10772
▁source_I 10773
▁successful_B 10774
▁successful_I 10775
▁fabulous_B 10776
▁fabulous_I 10777
▁Vietnam_B 10778
▁Vietnam_I 10779
▁Becca_B 10780
▁Becca_I 10781
▁Elaine_B 10782
▁Elaine_I 10783
▁Vicky_B 10784
▁Vicky_I 10785
▁culture_B 10786
▁culture_I 10787
▁stove_B 10788
▁stove_I 10789
▁Airlines_B 10790
▁Airlines_I 10791
▁Cardinals_B 10792
▁Cardinals_I 10793
▁registration_B 10794
▁registration_I 10795
▁supervisor_B 10796
▁supervisor_I 10797
▁Gonzalez_B 10798
▁Gonzalez_I 10799
▁determine_B 10800
▁determine_I 10801
▁curtain_B 10802
▁curtain_I 10803
▁consult_B 10804
▁consult_I 10805
▁AutoZone_B 10806
▁AutoZone_I 10807
▁Fernando_B 10808
▁Fernando_I 10809
▁gross_B 10810
▁gross_I 10811
▁Naruto_B 10812
▁Naruto_I 10813
▁Obama_B 10814
▁Obama_I 10815
▁division_B 10816
▁division_I 10817
▁themselves_B 10818
▁themselves_I 10819
▁popcorn_B 10820
▁popcorn_I 10821
▁Tanya_B 10822
▁Tanya_I 10823
ctiv_B 10824
ctiv_I 10825
▁Lucky_B 10826
▁Lucky_I 10827
▁incredible_B 10828
▁incredible_I 10829
▁romantic_B 10830
▁romantic_I 10831
▁Sanchez_B 10832
▁Sanchez_I 10833
▁refund_B 10834
▁refund_I 10835
▁Reynolds_B 10836
▁Reynolds_I 10837
▁silent_B 10838
▁silent_I 10839
▁Cinderella_B 10840
▁Cinderella_I 10841
▁Delaware_B 10842
▁Delaware_I 10843
▁Canyon_B 10844
▁Canyon_I 10845
▁grave_B 10846
▁grave_I 10847
▁Julio_B 10848
▁Julio_I 10849
▁Holmes_B 10850
▁Holmes_I 10851
▁Gracie_B 10852
▁Gracie_I 10853
▁wax_B 10854
▁wax_I 10855
▁permission_B 10856
▁permission_I 10857
▁pretend_B 10858
▁pretend_I 10859
▁Elijah_B 10860
▁Elijah_I 10861
▁availability_B 10862
▁availability_I 10863
▁iCloud_B 10864
▁iCloud_I 10865
▁Egypt_B 10866
▁Egypt_I 10867
▁fabric_B 10868
▁fabric_I 10869
▁generation_B 10870
▁generation_I 10871
▁Kaylee_B 10872
▁Kaylee_I 10873
▁occur_B 10874
▁occur_I 10875
▁oops_B 10876
▁oops_I 10877
▁broccoli_B 10878
▁broccoli_I 10879
▁district_B 10880
▁district_I 10881
▁object_B 10882
▁object_I 10883
▁intention_B 10884
▁intention_I 10885
▁harry_B 10886
▁harry_I 10887
▁Tokyo_B 10888
▁Tokyo_I 10889
▁Mamma_B 10890
▁Mamma_I 10891
▁AirPod_B 10892
▁AirPod_I 10893
▁clothing_B 10894
▁clothing_I 10895
▁leaf_B 10896
▁leaf_I 10897
▁emotion_B 10898
▁emotion_I 10899
▁environment_B 10900
▁environment_I 10901
▁float_B 10902
▁float_I 10903
▁central_B 10904
▁central_I 10905
▁plain_B 10906
▁plain_I 10907
▁graduate_B 10908
▁graduate_I 10909
▁happiness_B 10910
▁happiness_I 10911
▁Things_B 10912
▁Things_I 10913
▁steam_B 10914
▁steam_I 10915
▁Memphis_B 10916
▁Memphis_I 10917
▁autumn_B 10918
▁autumn_I 10919
▁Cesar_B 10920
▁Cesar_I 10921
▁shallow_B 10922
▁shallow_I 10923
▁Arnold_B 10924
▁Arnold_I 10925
▁essential_B 10926
▁essential_I 10927
▁Barnes_B 10928
▁Barnes_I 10929
▁Brewer_B 10930
▁Brewer_I 10931
▁Evelyn_B 10932
▁Evelyn_I 10933
▁Project_B 10934
▁Project_I 10935
▁watermelon_B 10936
▁watermelon_I 10937
▁DMV_B 10938
▁DMV_I 10939
▁Nissan_B 10940
▁Nissan_I 10941
▁Apartment_B 10942
▁Apartment_I 10943
▁subject_B 10944
▁subject_I 10945
▁salmon_B 10946
▁salmon_I 10947
▁quarterback_B 10948
▁quarterback_I 10949
▁Grammy_B 10950
▁Grammy_I 10951
▁Mackenzie_B 10952
▁Mackenzie_I 10953
▁distract_B 10954
▁distract_I 10955
▁Madonna_B 10956
▁Madonna_I 10957
▁Casino_B 10958
▁Casino_I 10959
▁realtor_B 10960
▁realtor_I 10961
▁Office_B 10962
▁Office_I 10963
▁illegal_B 10964
▁illegal_I 10965
▁goosebumps_B 10966
▁goosebumps_I 10967
▁length_B 10968
▁length_I 10969
▁grape_B 10970
▁grape_I 10971
▁assignment_B 10972
▁assignment_I 10973
▁associate_B 10974
▁associate_I 10975
▁resource_B 10976
▁resource_I 10977
▁firm_B 10978
▁firm_I 10979
▁McKi_B 10980
▁McKi_I 10981
▁Timberlake_B 10982
▁Timberlake_I 10983
▁antibiotic_B 10984
▁antibiotic_I 10985
▁Monroe_B 10986
▁Monroe_I 10987
▁Florence_B 10988
▁Florence_I 10989
▁Montgomery_B 10990
▁Montgomery_I 10991
▁symbol_B 10992
▁symbol_I 10993
▁chemical_B 10994
▁chemical_I 10995
▁procedure_B 10996
▁procedure_I 10997
▁Civil_B 10998
▁Civil_I 10999
▁Puerto_B 11000
▁Puerto_I 11001
▁advise_B 11002
▁advise_I 11003
▁skills_B 11004
▁skills_I 11005
▁Aidan_B 11006
▁Aidan_I 11007
▁Wallace_B 11008
▁Wallace_I 11009
▁diary_B 11010
▁diary_I 11011
▁Wyoming_B 11012
▁Wyoming_I 11013
▁primary_B 11014
▁primary_I 11015
▁attempt_B 11016
▁attempt_I 11017
▁frustrated_B 11018
▁frustrated_I 11019
▁Fallon_B 11020
▁Fallon_I 11021
espicable_B 11022
espicable_I 11023
▁Secret_B 11024
▁Secret_I 11025
▁Temple_B 11026
▁Temple_I 11027
▁dodger_B 11028
▁dodger_I 11029
▁MSNBC_B 11030
▁MSNBC_I 11031
▁vampire_B 11032
▁vampire_I 11033
▁Deborah_B 11034
▁Deborah_I 11035
▁Aurora_B 11036
▁Aurora_I 11037
▁addition_B 11038
▁addition_I 11039
▁Democrat_B 11040
▁Democrat_I 11041
▁plumber_B 11042
▁plumber_I 11043
▁fireworks_B 11044
▁fireworks_I 11045
▁critic_B 11046
▁critic_I 11047
▁chandelier_B 11048
▁chandelier_I 11049
▁underwear_B 11050
▁underwear_I 11051
▁clown_B 11052
▁clown_I 11053
▁sharp_B 11054
▁sharp_I 11055
▁shout_B 11056
▁shout_I 11057
▁Virgin_B 11058
▁Virgin_I 11059
▁Daisy_B 11060
▁Daisy_I 11061
▁Pastor_B 11062
▁Pastor_I 11063
▁gather_B 11064
▁gather_I 11065
▁slice_B 11066
▁slice_I 11067
▁Este_B 11068
▁Este_I 11069
▁Indianapolis_B 11070
▁Indianapolis_I 11071
▁furious_B 11072
▁furious_I 11073
▁arrest_B 11074
▁arrest_I 11075
▁Destiny_B 11076
▁Destiny_I 11077
▁pricing_B 11078
▁pricing_I 11079
▁tutorial_B 11080
▁tutorial_I 11081
▁hidden_B 11082
▁hidden_I 11083
▁Army_B 11084
▁Army_I 11085
▁Caitlin_B 11086
▁Caitlin_I 11087
▁Presley_B 11088
▁Presley_I 11089
▁Atlantic_B 11090
▁Atlantic_I 11091
▁accomplish_B 11092
▁accomplish_I 11093
▁responsible_B 11094
▁responsible_I 11095
▁Count_B 11096
▁Count_I 11097
▁sprinkle_B 11098
▁sprinkle_I 11099
▁hotdog_B 11100
▁hotdog_I 11101
▁Stefan_B 11102
▁Stefan_I 11103
▁advantage_B 11104
▁advantage_I 11105
▁darling_B 11106
▁darling_I 11107
▁Regina_B 11108
▁Regina_I 11109
▁habit_B 11110
▁habit_I 11111
▁demand_B 11112
▁demand_I 11113
▁confident_B 11114
▁confident_I 11115
▁Samuel_B 11116
▁Samuel_I 11117
▁Barcelona_B 11118
▁Barcelona_I 11119
▁waffle_B 11120
▁waffle_I 11121
▁Cherry_B 11122
▁Cherry_I 11123
▁PayPal_B 11124
▁PayPal_I 11125
▁disrespect_B 11126
▁disrespect_I 11127
▁Cassie_B 11128
▁Cassie_I 11129
▁upgrade_B 11130
▁upgrade_I 11131
▁specifically_B 11132
▁specifically_I 11133
worm_B 11134
worm_I 11135
▁strawberry_B 11136
▁strawberry_I 11137
▁feature_B 11138
▁feature_I 11139
▁regards_B 11140
▁regards_I 11141
▁sword_B 11142
▁sword_I 11143
▁celebration_B 11144
▁celebration_I 11145
▁disappear_B 11146
▁disappear_I 11147
▁Nigga_B 11148
▁Nigga_I 11149
▁Vancouver_B 11150
▁Vancouver_I 11151
▁hallelujah_B 11152
▁hallelujah_I 11153
▁signature_B 11154
▁signature_I 11155
▁Dawson_B 11156
▁Dawson_I 11157
▁prevent_B 11158
▁prevent_I 11159
▁Katherine_B 11160
▁Katherine_I 11161
▁Transylvania_B 11162
▁Transylvania_I 11163
▁arrival_B 11164
▁arrival_I 11165
▁ingredients_B 11166
▁ingredients_I 11167
▁uniform_B 11168
▁uniform_I 11169
▁reception_B 11170
▁reception_I 11171
▁YoungBoy_B 11172
▁YoungBoy_I 11173
▁pride_B 11174
▁pride_I 11175
▁result_B 11176
▁result_I 11177
▁technology_B 11178
▁technology_I 11179
▁chief_B 11180
▁chief_I 11181
▁homemade_B 11182
▁homemade_I 11183
▁argue_B 11184
▁argue_I 11185
▁flea_B 11186
▁flea_I 11187
▁destination_B 11188
▁destination_I 11189
▁AAA_B 11190
▁AAA_I 11191
Life_B 11192
Life_I 11193
▁DanTDM_B 11194
▁DanTDM_I 11195
▁approximately_B 11196
▁approximately_I 11197
▁Health_B 11198
▁Health_I 11199
▁argument_B 11200
▁argument_I 11201
treating_B 11202
treating_I 11203
▁tradition_B 11204
▁tradition_I 11205
▁wallpaper_B 11206
▁wallpaper_I 11207
▁passenger_B 11208
▁passenger_I 11209
▁Xfinity_B 11210
▁Xfinity_I 11211
▁lasagna_B 11212
▁lasagna_I 11213
▁BFF_B 11214
▁BFF_I 11215
▁Pedro_B 11216
▁Pedro_I 11217
▁Catholic_B 11218
▁Catholic_I 11219
▁freezing_B 11220
▁freezing_I 11221
▁Berry_B 11222
▁Berry_I 11223
▁Pleasant_B 11224
▁Pleasant_I 11225
▁coconut_B 11226
▁coconut_I 11227
▁joking_B 11228
▁joking_I 11229
▁android_B 11230
▁android_I 11231
▁federal_B 11232
▁federal_I 11233
▁dumbass_B 11234
▁dumbass_I 11235
▁Salem_B 11236
▁Salem_I 11237
▁Cinema_B 11238
▁Cinema_I 11239
▁reserve_B 11240
▁reserve_I 11241
▁weapon_B 11242
▁weapon_I 11243
▁Smart_B 11244
▁Smart_I 11245
▁Meadow_B 11246
▁Meadow_I 11247
▁Reagan_B 11248
▁Reagan_I 11249
▁butterfly_B 11250
▁butterfly_I 11251
Angelo_B 11252
Angelo_I 11253
▁documentaries_B 11254
▁documentaries_I 11255
▁Carpenter_B 11256
▁Carpenter_I 11257
▁Amelia_B 11258
▁Amelia_I 11259
▁scrap_B 11260
▁scrap_I 11261
▁pirate_B 11262
▁pirate_I 11263
▁Marriott_B 11264
▁Marriott_I 11265
▁cinnamon_B 11266
▁cinnamon_I 11267
▁suffer_B 11268
▁suffer_I 11269
▁crowd_B 11270
▁crowd_I 11271
▁anthem_B 11272
▁anthem_I 11273
▁phase_B 11274
▁phase_I 11275
▁Meredith_B 11276
▁Meredith_I 11277
▁enterprise_B 11278
▁enterprise_I 11279
▁ambient_B 11280
▁ambient_I 11281
▁Ruben_B 11282
▁Ruben_I 11283
▁strike_B 11284
▁strike_I 11285
▁content_B 11286
▁content_I 11287
▁Museum_B 11288
▁Museum_I 11289
▁commission_B 11290
▁commission_I 11291
▁curl_B 11292
▁curl_I 11293
▁Plaza_B 11294
▁Plaza_I 11295
▁Lloyd_B 11296
▁Lloyd_I 11297
▁desire_B 11298
▁desire_I 11299
▁Room_B 11300
▁Room_I 11301
▁families_B 11302
▁families_I 11303
▁Poppins_B 11304
▁Poppins_I 11305
▁Peyton_B 11306
▁Peyton_I 11307
▁Dream_B 11308
▁Dream_I 11309
▁rag_B 11310
▁rag_I 11311
▁Empire_B 11312
▁Empire_I 11313
▁creative_B 11314
▁creative_I 11315
▁itself_B 11316
▁itself_I 11317
▁Metallica_B 11318
▁Metallica_I 11319
▁oxygen_B 11320
▁oxygen_I 11321
▁patience_B 11322
▁patience_I 11323
▁Gibson_B 11324
▁Gibson_I 11325
▁Journey_B 11326
▁Journey_I 11327
▁complex_B 11328
▁complex_I 11329
▁Rolling_B 11330
▁Rolling_I 11331
▁bachelor_B 11332
▁bachelor_I 11333
▁appliance_B 11334
▁appliance_I 11335
▁micro_B 11336
▁micro_I 11337
▁Addison_B 11338
▁Addison_I 11339
▁occasion_B 11340
▁occasion_I 11341
▁struggle_B 11342
▁struggle_I 11343
▁Bishop_B 11344
▁Bishop_I 11345
▁error_B 11346
▁error_I 11347
▁index_B 11348
▁index_I 11349
▁venom_B 11350
▁venom_I 11351
▁Zeppelin_B 11352
▁Zeppelin_I 11353
▁seafood_B 11354
▁seafood_I 11355
▁iMessage_B 11356
▁iMessage_I 11357
▁poem_B 11358
▁poem_I 11359
▁slave_B 11360
▁slave_I 11361
▁ankle_B 11362
▁ankle_I 11363
▁journey_B 11364
▁journey_I 11365
▁Shelley_B 11366
▁Shelley_I 11367
ü_B 11368
ü_I 11369
"_B 11370
"_I 11371
ö_B 11372
ö_I 11373
,_B 11374
,_I 11375
*_B 11376
*_I 11377
è_B 11378
è_I 11379
ë_B 11380
ë_I 11381
ï_B 11382
ï_I 11383
ä_B 11384
ä_I 11385
ç_B 11386
ç_I 11387
à_B 11388
à_I 11389
ú_B 11390
ú_I 11391
â_B 11392
â_I 11393
ê_B 11394
ê_I 11395
(_B 11396
(_I 11397
)_B 11398
)_I 11399
č_B 11400
č_I 11401
š_B 11402
š_I 11403
ć_B 11404
ć_I 11405
~_B 11406
~_I 11407
\_B 11408
\_I 11409
Ü_B 11410
Ü_I 11411
ã_B 11412
ã_I 11413
Á_B 11414
Á_I 11415
ø_B 11416
ø_I 11417
ô_B 11418
ô_I 11419
É_B 11420
É_I 11421
û_B 11422
û_I 11423
ý_B 11424
ý_I 11425
î_B 11426
î_I 11427
Ø_B 11428
Ø_I 11429
ō_B 11430
ō_I 11431
ł_B 11432
ł_I 11433
:_B 11434
:_I 11435
Ö_B 11436
Ö_I 11437
å_B 11438
å_I 11439
Í_B 11440
Í_I 11441
ž_B 11442
ž_I 11443
ă_B 11444
ă_I 11445
ā_B 11446
ā_I 11447
’_B 11448
’_I 11449
ě_B 11450
ě_I 11451
ı_B 11452
ı_I 11453
ň_B 11454
ň_I 11455
ي_B 11456
ي_I 11457
ń_B 11458
ń_I 11459
ا_B 11460
ا_I 11461
ÿ_B 11462
ÿ_I 11463
а_B 11464
а_I 11465
י_B 11466
י_I 11467
ū_B 11468
ū_I 11469
Ú_B 11470
Ú_I 11471
ò_B 11472
ò_I 11473
ʻ_B 11474
ʻ_I 11475
ą_B 11476
ą_I 11477
ś_B 11478
ś_I 11479
Ñ_B 11480
Ñ_I 11481
æ_B 11482
æ_I 11483
†_B 11484
†_I 11485
ş_B 11486
ş_I 11487
م_B 11488
م_I 11489
ż_B 11490
ż_I 11491
ť_B 11492
ť_I 11493
د_B 11494
د_I 11495
ل_B 11496
ل_I 11497
ì_B 11498
ì_I 11499
α_B 11500
α_I 11501
о_B 11502
о_I 11503
т_B 11504
т_I 11505
Î_B 11506
Î_I 11507
ğ_B 11508
ğ_I 11509
Đ_B 11510
Đ_I 11511
?_B 11512
?_I 11513
Ä_B 11514
Ä_I 11515
ù_B 11516
ù_I 11517
đ_B 11518
đ_I 11519
ė_B 11520
ė_I 11521
ę_B 11522
ę_I 11523
е_B 11524
е_I 11525
н_B 11526
н_I 11527
ר_B 11528
ר_I 11529
ت_B 11530
ت_I 11531
ر_B 11532
ر_I 11533
ن_B 11534
ن_I 11535
ו_B 11536
ו_I 11537
ב_B 11538
ב_I 11539
ש_B 11540
ש_I 11541
õ_B 11542
õ_I 11543
ē_B 11544
ē_I 11545
ț_B 11546
ț_I 11547
Σ_B 11548
Σ_I 11549
π_B 11550
π_I 11551
к_B 11552
к_I 11553
ш_B 11554
ш_I 11555
ه_B 11556
ه_I 11557
و_B 11558
و_I 11559
ع_B 11560
ع_I 11561
ك_B 11562
ك_I 11563
<_B 11564
<_I 11565
Ë_B 11566
Ë_I 11567
>_B 11568
>_I 11569
ī_B 11570
ī_I 11571
ő_B 11572
ő_I 11573
ů_B 11574
ů_I 11575
λ_B 11576
λ_I 11577
ς_B 11578
ς_I 11579
и_B 11580
и_I 11581
ღ_B 11582
ღ_I 11583
ạ_B 11584
ạ_I 11585
ị_B 11586
ị_I 11587
마_B 11588
마_I 11589
ư_B 11590
ư_I 11591
ע_B 11592
ע_I 11593
ح_B 11594
ح_I 11595
п_B 11596
п_I 11597
#_B 11598
#_I 11599
س_B 11600
س_I 11601
у_B 11602
у_I 11603
с_B 11604
с_I 11605
=_B 11606
=_I 11607
Ê_B 11608
Ê_I 11609
Ï_B 11610
Ï_I 11611
ð_B 11612
ð_I 11613
Ɏ_B 11614
Ɏ_I 11615
ʼ_B 11616
ʼ_I 11617
ʿ_B 11618
ʿ_I 11619
β_B 11620
β_I 11621
η_B 11622
η_I 11623
Б_B 11624
Б_I 11625
Т_B 11626
Т_I 11627
ל_B 11628
ל_I 11629
ם_B 11630
ם_I 11631
ת_B 11632
ת_I 11633
ة_B 11634
ة_I 11635
ط_B 11636
ط_I 11637
ế_B 11638
ế_I 11639
ợ_B 11640
ợ_I 11641
Ⅱ_B 11642
Ⅱ_I 11643
∑_B 11644
∑_I 11645
大_B 11646
大_I 11647
日_B 11648
日_I 11649
梦_B 11650
梦_I 11651
琪_B 11652
琪_I 11653
経_B 11654
経_I 11655
華_B 11656
華_I 11657
애_B 11658
애_I 11659
엄_B 11660
엄_I 11661
이_B 11662
이_I 11663
플_B 11664
플_I 11665
_B 11666
_I 11667
ν_B 11668
ν_I 11669
œ_B 11670
œ_I 11671
ι_B 11672
ι_I 11673
∞_B 11674
∞_I 11675
⁵_B 11676
⁵_I 11677
‧_B 11678
‧_I 11679
ề_B 11680
ề_I 11681
ẹ_B 11682
ẹ_I 11683
ằ_B 11684
ằ_I 11685
ج_B 11686
ج_I 11687
נ_B 11688
נ_I 11689
ь_B 11690
ь_I 11691
л_B 11692
л_I 11693
М_B 11694
М_I 11695
Ν_B 11696
Ν_I 11697
Β_B 11698
Β_I 11699
ũ_B 11700
ũ_I 11701
Ş_B 11702
Ş_I 11703
Ō_B 11704
Ō_I 11705
Þ_B 11706
Þ_I 11707
¿_B 11708
¿_I 11709
ỳ_B 11710
ỳ_I 11711
ở_B 11712
ở_I 11713
מ_B 11714
מ_I 11715
ד_B 11716
ד_I 11717
Р_B 11718
Р_I 11719
Τ_B 11720
Τ_I 11721
ŭ_B 11722
ŭ_I 11723
Ł_B 11724
Ł_I 11725
Ć_B 11726
Ć_I 11727
ả_B 11728
ả_I 11729
א_B 11730
א_I 11731
б_B 11732
б_I 11733
ơ_B 11734
ơ_I 11735
Ż_B 11736
Ż_I 11737
ź_B 11738
ź_I 11739
ß_B 11740
ß_I 11741
Å_B 11742
Å_I 11743
¡_B 11744
¡_I 11745
Ž_B 11746
Ž_I 11747
°_B 11748
°_I 11749
Ç_B 11750
Ç_I 11751
ب_B 11752
ب_I 11753
‑_B 11754
‑_I 11755
İ_B 11756
İ_I 11757
ģ_B 11758
ģ_I 11759
￼_B 11760
￼_I 11761
Č_B 11762
Č_I 11763
ș_B 11764
ș_I 11765
ņ_B 11766
ņ_I 11767
Ó_B 11768
Ó_I 11769
ř_B 11770
ř_I 11771
я_B 11772
я_I 11773
Â_B 11774
Â_I 11775
Д_B 11776
Д_I 11777
м_B 11778
м_I 11779
Ľ_B 11780
Ľ_I 11781
ə_B 11782
ə_I 11783
@_B 11784
@_I 11785
È_B 11786
È_I 11787
Ì_B 11788
Ì_I 11789
Ô_B 11790
Ô_I 11791
Ù_B 11792
Ù_I 11793
ļ_B 11794
ļ_I 11795
Ś_B 11796
Ś_I 11797
Ơ_B 11798
Ơ_I 11799
Ʊ_B 11800
Ʊ_I 11801
Ș_B 11802
Ș_I 11803
ˈ_B 11804
ˈ_I 11805
Α_B 11806
Α_I 11807
Δ_B 11808
Δ_I 11809
Ε_B 11810
Ε_I 11811
Λ_B 11812
Λ_I 11813
Π_B 11814
Π_I 11815
Ψ_B 11816
Ψ_I 11817
έ_B 11818
έ_I 11819
κ_B 11820
κ_I 11821
ο_B 11822
ο_I 11823
τ_B 11824
τ_I 11825
ό_B 11826
ό_I 11827
И_B 11828
И_I 11829
Э_B 11830
Э_I 11831
д_B 11832
д_I 11833
й_B 11834
й_I 11835
р_B 11836
р_I 11837
і_B 11838
і_I 11839
ה_B 11840
ה_I 11841
ח_B 11842
ח_I 11843
ן_B 11844
ן_I 11845
ص_B 11846
ص_I 11847
غ_B 11848
غ_I 11849
ق_B 11850
ق_I 11851
ک_B 11852
ک_I 11853
ॐ_B 11854
ॐ_I 11855
ਜ_B 11856
ਜ_I 11857
ਭ_B 11858
ਭ_I 11859
ਾ_B 11860
ਾ_I 11861
ੀ_B 11862
ੀ_I 11863
ป_B 11864
ป_I 11865
ล_B 11866
ล_I 11867
ิ_B 11868
ิ_I 11869
เ_B 11870
เ_I 11871
้_B 11872
้_I 11873
ሩ_B 11874
ሩ_I 11875
ት_B 11876
ት_I 11877
ኤ_B 11878
ኤ_I 11879
ያ_B 11880
ያ_I 11881
ፌ_B 11882
ፌ_I 11883
ᕼ_B 11884
ᕼ_I 11885
ᗯ_B 11886
ᗯ_I 11887
ấ_B 11888
ấ_I 11889
ầ_B 11890
ầ_I 11891
ậ_B 11892
ậ_I 11893
ẻ_B 11894
ẻ_I 11895
ễ_B 11896
ễ_I 11897
ọ_B 11898
ọ_I 11899
ộ_B 11900
ộ_I 11901
ớ_B 11902
ớ_I 11903
ỡ_B 11904
ỡ_I 11905
ủ_B 11906
ủ_I 11907
ứ_B 11908
ứ_I 11909
ỹ_B 11910
ỹ_I 11911
‐_B 11912
‐_I 11913
ℎ_B 11914
ℎ_I 11915
Ⅲ_B 11916
Ⅲ_I 11917
≠_B 11918
≠_I 11919
⋆_B 11920
⋆_I 11921
い_B 11922
い_I 11923
お_B 11924
お_I 11925
こ_B 11926
こ_I 11927
な_B 11928
な_I 11929
は_B 11930
は_I 11931
セ_B 11932
セ_I 11933
タ_B 11934
タ_I 11935
ン_B 11936
ン_I 11937
ー_B 11938
ー_I 11939
代_B 11940
代_I 11941
全_B 11942
全_I 11943
八_B 11944
八_I 11945
圭_B 11946
圭_I 11947
川_B 11948
川_I 11949
市_B 11950
市_I 11951
新_B 11952
新_I 11953
杨_B 11954
杨_I 11955
滝_B 11956
滝_I 11957
潟_B 11958
潟_I 11959
話_B 11960
話_I 11961
그_B 11962
그_I 11963
랜_B 11964
랜_I 11965
레_B 11966
레_I 11967
로_B 11968
로_I 11969
만_B 11970
만_I 11971
멜_B 11972
멜_I 11973
에_B 11974
에_I 11975
오_B 11976
오_I 11977
우_B 11978
우_I 11979
핸_B 11980
핸_I 11981
_B 11982
_I 11983
_B 11984
_I 11985
_B 11986
_I 11987
_B 11988
_I 11989
_B 11990
_I 11991
_B 11992
_I 11993
Š_B 11994
Š_I 11995
Γ_B 11996
Γ_I 11997
쉬_B 11998
쉬_I 11999
###0 12000
###1 12001
###2 12002
###3 12003
###4 12004
###5 12005
###6 12006
###7 12007
###8 12008
###9 12009
###10 12010
###11 12011
###12 12012
###13 12013
###14 12014
###15 12015
###16 12016
###17 12017
###18 12018
###19 12019
###20 12020
###21 12021
###22 12022
###23 12023
###24 12024
###25 12025
###26 12026
###27 12027
###28 12028
###29 12029
###30 12030
###31 12031
###32 12032
###33 12033
###34 12034
###35 12035
###36 12036
###37 12037
###38 12038
###39 12039
###40 12040
###41 12041
###42 12042
###43 12043
###44 12044
###45 12045
###46 12046
###47 12047
###48 12048
###49 12049
###50 12050
###51 12051
###52 12052
###53 12053
###54 12054
###55 12055
###56 12056
###57 12057
###58 12058
###59 12059
###60 12060
###61 12061
###62 12062
###63 12063
###64 12064
###65 12065
###66 12066
###67 12067
###68 12068
###69 12069
###70 12070
###71 12071
###72 12072
###73 12073
###74 12074
###75 12075
###76 12076
###77 12077
###78 12078
###79 12079
###80 12080
###81 12081
###82 12082
###83 12083
###84 12084
###85 12085
###86 12086
###87 12087
###88 12088
###89 12089
###90 12090
###91 12091
###92 12092
###93 12093
###94 12094
###95 12095
###96 12096
###97 12097
###98 12098
###99 12099
###100 12100
###101 12101
###102 12102
###103 12103
###104 12104
###105 12105
###106 12106
###107 12107
###108 12108
###109 12109
###110 12110
###111 12111
###112 12112
###113 12113
###114 12114
###115 12115
###116 12116
###117 12117
###118 12118
###119 12119
###120 12120
###121 12121
###122 12122
###123 12123
###124 12124
###125 12125
###126 12126
###127 12127
###128 12128
###129 12129
###130 12130
###131 12131
###132 12132
###133 12133
###134 12134
###135 12135
###136 12136
###137 12137
###138 12138
###139 12139
###140 12140
###141 12141
###142 12142
###143 12143
###144 12144
###145 12145
###146 12146
###147 12147
###148 12148
###149 12149
###150 12150
###151 12151
###152 12152
###153 12153
###154 12154
###155 12155
###156 12156
###157 12157
###158 12158
###159 12159
###160 12160
###161 12161
###162 12162
###163 12163
###164 12164
###165 12165
###166 12166
###167 12167
###168 12168
###169 12169
###170 12170
###171 12171
###172 12172
###173 12173
###174 12174
###175 12175
###176 12176
###177 12177
###178 12178
###179 12179
###180 12180
###181 12181
###182 12182
###183 12183
###184 12184
###185 12185
###186 12186
###187 12187
###188 12188
###189 12189
###190 12190
###191 12191
###192 12192
###193 12193
###194 12194
###195 12195
###196 12196
###197 12197
###198 12198
###199 12199
###200 12200
###201 12201
###202 12202
###203 12203
###204 12204
###205 12205
###206 12206
###207 12207
###208 12208
###209 12209
###210 12210
###211 12211
###212 12212
###213 12213
###214 12214
###215 12215
###216 12216
###217 12217
###218 12218
###219 12219
###220 12220
###221 12221
###222 12222
###223 12223
###224 12224
###225 12225
###226 12226
###227 12227
###228 12228
###229 12229
###230 12230
###231 12231
###232 12232
###233 12233
###234 12234
###235 12235
###236 12236
###237 12237
###238 12238
###239 12239
###240 12240
###241 12241
###242 12242
###243 12243
###244 12244
###245 12245
###246 12246
###247 12247
###248 12248
###249 12249
###250 12250
###251 12251
###252 12252
###253 12253
###254 12254
###255 12255
###256 12256
###257 12257
###258 12258
###259 12259
###260 12260
###261 12261
###262 12262
###263 12263
###264 12264
###265 12265
###266 12266
###267 12267
###268 12268
###269 12269
###270 12270
###271 12271
###272 12272
###273 12273
###274 12274
###275 12275
###276 12276
###277 12277
###278 12278
###279 12279
###280 12280
###281 12281
###282 12282
###283 12283
###284 12284
###285 12285
###286 12286
###287 12287
###288 12288
###289 12289
###290 12290
###291 12291
###292 12292
###293 12293
###294 12294
###295 12295
###296 12296
###297 12297
###298 12298
###299 12299
###300 12300
###301 12301
###302 12302
###303 12303
###304 12304
###305 12305
###306 12306
###307 12307
###308 12308
###309 12309
###310 12310
###311 12311
###312 12312
###313 12313
###314 12314
###315 12315
###316 12316
###317 12317
###318 12318
###319 12319
###320 12320
###321 12321
###322 12322
###323 12323
###324 12324
###325 12325
###326 12326
###327 12327
###328 12328
###329 12329
###330 12330
###331 12331
###332 12332
###333 12333
###334 12334
###335 12335
###336 12336
###337 12337
###338 12338
###339 12339
###340 12340
###341 12341
###342 12342
###343 12343
###344 12344
###345 12345
###346 12346
###347 12347
###348 12348
###349 12349
###350 12350
###351 12351
###352 12352
###353 12353
###354 12354
###355 12355
###356 12356
###357 12357
###358 12358
###359 12359
###360 12360
###361 12361
###362 12362
###363 12363
###364 12364
###365 12365
###366 12366
###367 12367
###368 12368
###369 12369
###370 12370
###371 12371
###372 12372
###373 12373
###374 12374
###375 12375
###376 12376
###377 12377
###378 12378
###379 12379
###380 12380
###381 12381
###382 12382
###383 12383
###384 12384
###385 12385
###386 12386
###387 12387
###388 12388
###389 12389
###390 12390
###391 12391
###392 12392
###393 12393
###394 12394
###395 12395
###396 12396
###397 12397
###398 12398
###399 12399
###400 12400
###401 12401
###402 12402
###403 12403
###404 12404
###405 12405
###406 12406
###407 12407
###408 12408
###409 12409
###410 12410
###411 12411
###412 12412
###413 12413
###414 12414
###415 12415
###416 12416
###417 12417
###418 12418
###419 12419
###420 12420
###421 12421
###422 12422
###423 12423
###424 12424
###425 12425
###426 12426
###427 12427
###428 12428
###429 12429
###430 12430
###431 12431
###432 12432
###433 12433
###434 12434
###435 12435
###436 12436
###437 12437
###438 12438
###439 12439
###440 12440
###441 12441
###442 12442
###443 12443
###444 12444
###445 12445
###446 12446
###447 12447
###448 12448
###449 12449
###450 12450
###451 12451
###452 12452
###453 12453
###454 12454
###455 12455
###456 12456
###457 12457
###458 12458
###459 12459
###460 12460
###461 12461
###462 12462
###463 12463
###464 12464
###465 12465
###466 12466
###467 12467
###468 12468
###469 12469
###470 12470
###471 12471
###472 12472
###473 12473
###474 12474
###475 12475
###476 12476
###477 12477
###478 12478
###479 12479
###480 12480
###481 12481
###482 12482
###483 12483
###484 12484
###485 12485
###486 12486
###487 12487
###488 12488
###489 12489
###490 12490
###491 12491
